{
  "version": "1.0",
  "truncation": null,
  "padding": null,
  "added_tokens": [
    {
      "id": 0,
      "content": "[MASK]",
      "single_word": false,
      "lstrip": false,
      "rstrip": false,
      "normalized": false,
      "special": true
    }
  ],
  "normalizer": null,
  "pre_tokenizer": {
    "type": "ByteLevel",
    "add_prefix_space": false,
    "trim_offsets": true,
    "use_regex": true
  },
  "post_processor": {
    "type": "ByteLevel",
    "add_prefix_space": true,
    "trim_offsets": false,
    "use_regex": true
  },
  "decoder": {
    "type": "ByteLevel",
    "add_prefix_space": true,
    "trim_offsets": true,
    "use_regex": true
  },
  "model": {
    "type": "BPE",
    "dropout": null,
    "unk_token": null,
    "continuing_subword_prefix": null,
    "end_of_word_suffix": null,
    "fuse_unk": false,
    "byte_fallback": false,
    "ignore_merges": false,
    "vocab": {
      "[MASK]": 0,
      "!": 1,
      "&": 2,
      "(": 3,
      ")": 4,
      ",": 5,
      ".": 6,
      "0": 7,
      "1": 8,
      "2": 9,
      "3": 10,
      "4": 11,
      "5": 12,
      "6": 13,
      "7": 14,
      "8": 15,
      "9": 16,
      ":": 17,
      "?": 18,
      "A": 19,
      "B": 20,
      "C": 21,
      "D": 22,
      "E": 23,
      "F": 24,
      "G": 25,
      "H": 26,
      "I": 27,
      "J": 28,
      "K": 29,
      "L": 30,
      "M": 31,
      "N": 32,
      "O": 33,
      "P": 34,
      "Q": 35,
      "R": 36,
      "S": 37,
      "T": 38,
      "U": 39,
      "V": 40,
      "W": 41,
      "X": 42,
      "Y": 43,
      "Z": 44,
      "a": 45,
      "b": 46,
      "c": 47,
      "d": 48,
      "e": 49,
      "f": 50,
      "g": 51,
      "h": 52,
      "i": 53,
      "j": 54,
      "k": 55,
      "l": 56,
      "m": 57,
      "n": 58,
      "o": 59,
      "p": 60,
      "q": 61,
      "r": 62,
      "s": 63,
      "t": 64,
      "u": 65,
      "v": 66,
      "w": 67,
      "x": 68,
      "y": 69,
      "z": 70,
      "â": 71,
      "Ġ": 72,
      "Ģ": 73,
      "ĺ": 74,
      "Ļ": 75,
      "ľ": 76,
      "Ŀ": 77,
      "Ġt": 78,
      "he": 79,
      "âĢ": 80,
      "Ġa": 81,
      "in": 82,
      "Ġ,": 83,
      "Ġs": 84,
      "ĠâĢ": 85,
      "Ġw": 86,
      "Ġthe": 87,
      "Ġ.": 88,
      "re": 89,
      "ou": 90,
      "Ġh": 91,
      "ed": 92,
      "on": 93,
      "ing": 94,
      "er": 95,
      "ar": 96,
      "nd": 97,
      "Ġb": 98,
      "ĠH": 99,
      "ĠâĢľ": 100,
      "ĠâĢĿ": 101,
      "Ġf": 102,
      "Ġo": 103,
      "at": 104,
      "is": 105,
      "Ġto": 106,
      "it": 107,
      "Ġc": 108,
      "âĢĻ": 109,
      "as": 110,
      "or": 111,
      "ll": 112,
      "id": 113,
      "Ġhe": 114,
      "Ġd": 115,
      "en": 116,
      "Ġm": 117,
      "Ġl": 118,
      "Ġand": 119,
      "Ġth": 120,
      "Ġof": 121,
      "ry": 122,
      "Ġp": 123,
      "es": 124,
      "Ġha": 125,
      "Ġg": 126,
      "Ġin": 127,
      "an": 128,
      "Ġn": 129,
      "le": 130,
      "arry": 131,
      "ĠI": 132,
      "Ġsa": 133,
      "ow": 134,
      "ĠHarry": 135,
      "ly": 136,
      "Ġy": 137,
      "ot": 138,
      "om": 139,
      "Ġwas": 140,
      "Ġbe": 141,
      "gh": 142,
      "Ġe": 143,
      "Ġsaid": 144,
      "ac": 145,
      "Ġyou": 146,
      "ld": 147,
      "Ġhis": 148,
      "im": 149,
      "us": 150,
      "ve": 151,
      "Ġst": 152,
      "oo": 153,
      "Ġit": 154,
      "ĠT": 155,
      "Ġon": 156,
      "et": 157,
      "ic": 158,
      "ver": 159,
      "ĠS": 160,
      "ion": 161,
      "Ġwh": 162,
      "Ġ?": 163,
      "ĠM": 164,
      "ro": 165,
      "ir": 166,
      "Ġhad": 167,
      "Ġthat": 168,
      "ĠW": 169,
      "ut": 170,
      "ght": 171,
      "ĠD": 172,
      "Ġwe": 173,
      "out": 174,
      "ent": 175,
      "Ġu": 176,
      "Ġat": 177,
      "ad": 178,
      "Ġas": 179,
      "Ġre": 180,
      "ur": 181,
      "al": 182,
      "ĠR": 183,
      "ĠA": 184,
      "ore": 185,
      "Ġhim": 186,
      "se": 187,
      "ag": 188,
      "st": 189,
      "ri": 190,
      "ĠThe": 191,
      "Ġwit": 192,
      "ke": 193,
      "ĠP": 194,
      "ch": 195,
      "ay": 196,
      "ook": 197,
      "ould": 198,
      "Ġwith": 199,
      "red": 200,
      "Ġan": 201,
      "Ġ!": 202,
      "Ġfor": 203,
      "Ġse": 204,
      "ĠHe": 205,
      "am": 206,
      "her": 207,
      "ter": 208,
      "um": 209,
      "pp": 210,
      "all": 211,
      "ĠRon": 212,
      "Ġnot": 213,
      "ill": 214,
      "ack": 215,
      "rou": 216,
      "ĠB": 217,
      "ard": 218,
      "Ġsh": 219,
      "Ġk": 220,
      "led": 221,
      "erm": 222,
      "pe": 223,
      "Ġlook": 224,
      "Ġher": 225,
      "ain": 226,
      "Ġup": 227,
      "ĠHerm": 228,
      "ione": 229,
      "ĠHermione": 230,
      "Ġfr": 231,
      "em": 232,
      "Ġdo": 233,
      "ight": 234,
      "ĠC": 235,
      "Ġthey": 236,
      "ĠG": 237,
      "Ġout": 238,
      "ess": 239,
      "ce": 240,
      "un": 241,
      "ind": 242,
      "ge": 243,
      "ĠY": 244,
      "Ġwere": 245,
      "Ġme": 246,
      "ĠF": 247,
      "Ġne": 248,
      "Ġkn": 249,
      "Ġbut": 250,
      "Ġthem": 251,
      "and": 252,
      "ted": 253,
      "Ġr": 254,
      "il": 255,
      "ĠL": 256,
      "to": 257,
      "Ġfe": 258,
      "Ġall": 259,
      "ĠWe": 260,
      "ak": 261,
      "if": 262,
      "ĠN": 263,
      "Ġshe": 264,
      "Ġhave": 265,
      "Ġfrom": 266,
      "Ġj": 267,
      "umb": 268,
      "hing": 269,
      "Ġgo": 270,
      "ust": 271,
      "ĠâĢĻ": 272,
      "ck": 273,
      "ome": 274,
      "very": 275,
      "ood": 276,
      "Ġso": 277,
      "hed": 278,
      "Ġwhe": 279,
      "ast": 280,
      "one": 281,
      "ble": 282,
      "Ġback": 283,
      "lo": 284,
      "qu": 285,
      "umbled": 286,
      "Ġli": 287,
      "ort": 288,
      "Ġinto": 289,
      "ide": 290,
      "own": 291,
      "Ġdid": 292,
      "Ġwhat": 293,
      "Ġwho": 294,
      "ĠDumbled": 295,
      "ĠDumbledore": 296,
      "Ġv": 297,
      "Ġcould": 298,
      "art": 299,
      "ud": 300,
      "Ġis": 301,
      "round": 302,
      "ĠO": 303,
      "ant": 304,
      "Ġbeen": 305,
      "rid": 306,
      "Ġthou": 307,
      "Ġle": 308,
      "Ġex": 309,
      "Ġab": 310,
      "ink": 311,
      "our": 312,
      "Ġno": 313,
      "Ġag": 314,
      "lf": 315,
      "ist": 316,
      "Ġro": 317,
      "ra": 318,
      "ĠIt": 319,
      "ice": 320,
      "ous": 321,
      "ct": 322,
      "Ġde": 323,
      "Ġal": 324,
      "ĠWh": 325,
      "ong": 326,
      "ĠYou": 327,
      "ff": 328,
      "ul": 329,
      "Ġthis": 330,
      "ace": 331,
      "Ġover": 332,
      "oy": 333,
      "Ġte": 334,
      "ers": 335,
      "Ġwould": 336,
      "ley": 337,
      "ss": 338,
      "Ġthere": 339,
      "ked": 340,
      "Ġsu": 341,
      "ig": 342,
      "Ġpo": 343,
      "Ġknow": 344,
      "na": 345,
      "Ġtheir": 346,
      "ep": 347,
      "Ġdown": 348,
      "Ġch": 349,
      "ĠE": 350,
      "Ġoff": 351,
      "old": 352,
      "Ġabout": 353,
      "Ġany": 354,
      "iz": 355,
      "Ġagain": 356,
      "ven": 357,
      "Ġone": 358,
      "Ġlike": 359,
      "ther": 360,
      "Ġlooked": 361,
      "way": 362,
      "Ġsp": 363,
      "Ġqu": 364,
      "urn": 365,
      "Ġnow": 366,
      "Ġcon": 367,
      "ting": 368,
      "ĠPro": 369,
      "ick": 370,
      "el": 371,
      "Ġaround": 372,
      "Ġyour": 373,
      "Ġus": 374,
      "Ġby": 375,
      "Ġey": 376,
      "Ġun": 377,
      "ĠV": 378,
      "Ġhand": 379,
      "ie": 380,
      "ass": 381,
      "ĠMr": 382,
      "ime": 383,
      "op": 384,
      "ally": 385,
      "Ġbl": 386,
      "are": 387,
      "ull": 388,
      "Ġwor": 389,
      "Ġthink": 390,
      "Ġjust": 391,
      "fess": 392,
      "Ġgot": 393,
      "Ġye": 394,
      "Ġthen": 395,
      "ap": 396,
      "Ġcan": 397,
      "ered": 398,
      "fessor": 399,
      "Ġsc": 400,
      "ark": 401,
      "ĠHag": 402,
      "ĠProfessor": 403,
      "ĠHagrid": 404,
      "Ġtoo": 405,
      "right": 406,
      "ake": 407,
      "Ġif": 408,
      "Ġare": 409,
      "Ġsee": 410,
      "est": 411,
      "Ġget": 412,
      "ward": 413,
      "reat": 414,
      "Ġpl": 415,
      "Ġwhen": 416,
      "Ġcl": 417,
      "Ġvery": 418,
      "ĠBut": 419,
      "Ġsl": 420,
      "Ġmy": 421,
      "ĠTh": 422,
      "Ġor": 423,
      "Ġmore": 424,
      "ĠAnd": 425,
      "Ġwand": 426,
      "Ġhead": 427,
      "bb": 428,
      "up": 429,
      "ĠSna": 430,
      "ĠSnape": 431,
      "Ġmo": 432,
      "ame": 433,
      "ive": 434,
      "Ġlooking": 435,
      "Ġthough": 436,
      "og": 437,
      "ĠThey": 438,
      "Ġcom": 439,
      "self": 440,
      "Ġtw": 441,
      "ate": 442,
      "ĠWeas": 443,
      "ĠWeasley": 444,
      "Ġtime": 445,
      "Ġsm": 446,
      "ang": 447,
      "ĠK": 448,
      "Ġhow": 449,
      "Ġdoor": 450,
      "Ġstill": 451,
      "ound": 452,
      "pped": 453,
      "Ġvo": 454,
      "ved": 455,
      "rough": 456,
      "Ġ:": 457,
      "ond": 458,
      "Ġtr": 459,
      "Ġeyes": 460,
      "ation": 461,
      "orn": 462,
      "ĠWhat": 463,
      "ared": 464,
      "Ġdon": 465,
      "Ġface": 466,
      "Ġthan": 467,
      "ving": 468,
      "Ġturn": 469,
      "air": 470,
      "Ġgl": 471,
      "ius": 472,
      "Ġthrough": 473,
      "Ġsome": 474,
      "ich": 475,
      "fore": 476,
      "Ġright": 477,
      "ite": 478,
      "Ġar": 479,
      "Ġgr": 480,
      "nder": 481,
      "ure": 482,
      "ath": 483,
      "ily": 484,
      "ĠU": 485,
      "Ġgoing": 486,
      "au": 487,
      "Ġvoice": 488,
      "Ġseem": 489,
      "Ġother": 490,
      "pt": 491,
      "alf": 492,
      "ĠPot": 493,
      "inn": 494,
      "gg": 495,
      "tle": 496,
      "Ġwhich": 497,
      "ious": 498,
      "Ġfl": 499,
      "ened": 500,
      "ire": 501,
      "ol": 502,
      "Ġsw": 503,
      "ree": 504,
      "Ġsay": 505,
      "ave": 506,
      "ĠShe": 507,
      "Ġthought": 508,
      "Ġbefore": 509,
      "other": 510,
      "Ġevery": 511,
      "ling": 512,
      "aus": 513,
      "fter": 514,
      "ĠMalf": 515,
      "ĠMalfoy": 516,
      "omet": 517,
      "ars": 518,
      "Ġwill": 519,
      "Ġman": 520,
      "able": 521,
      "Ġdidn": 522,
      "Ġhere": 523,
      "aring": 524,
      "wn": 525,
      "Ġen": 526,
      "Ġroom": 527,
      "Ġclo": 528,
      "idd": 529,
      "ched": 530,
      "Ġop": 531,
      "aking": 532,
      "ade": 533,
      "Ġlong": 534,
      "ab": 535,
      "orm": 536,
      "ft": 537,
      "Ġpre": 538,
      "Ġim": 539,
      "od": 540,
      "side": 541,
      "ĠThere": 542,
      "ile": 543,
      "Ġonly": 544,
      "ĠCh": 545,
      "emort": 546,
      "ĠVold": 547,
      "Ġwat": 548,
      "ĠVoldemort": 549,
      "king": 550,
      "Ġsomet": 551,
      "Ġpe": 552,
      "ĠSir": 553,
      "Ġsaw": 554,
      "Ġwhere": 555,
      "Ġdis": 556,
      "th": 557,
      "Ġunder": 558,
      "ts": 559,
      "Ġtell": 560,
      "Ġhapp": 561,
      "Ġkne": 562,
      "ĠPotter": 563,
      "Ġbeh": 564,
      "Ġbec": 565,
      "Ġway": 566,
      "Ġwant": 567,
      "Ġafter": 568,
      "ĠWell": 569,
      "age": 570,
      "row": 571,
      "ried": 572,
      "ather": 573,
      "izard": 574,
      "Ġmu": 575,
      "ves": 576,
      "Ġke": 577,
      "sed": 578,
      "Ġlo": 579,
      "ĠDe": 580,
      "ment": 581,
      "Ġapp": 582,
      "Ġlet": 583,
      "Ġseemed": 584,
      "Ġsomething": 585,
      "ĠNe": 586,
      "te": 587,
      "Ġaway": 588,
      "Ġhimself": 589,
      "ĠSirius": 590,
      "Ġlit": 591,
      "thing": 592,
      "Ġfir": 593,
      "Ġbet": 594,
      "Ġbehind": 595,
      "Ġeven": 596,
      "ĠNo": 597,
      "ause": 598,
      "Ġspe": 599,
      "Ġrem": 600,
      "Ġasked": 601,
      "Ġbr": 602,
      "ect": 603,
      "mb": 604,
      "Ġtold": 605,
      "Ġnever": 606,
      "Ġturned": 607,
      "Ġtoward": 608,
      "ĠHog": 609,
      "ated": 610,
      "lt": 611,
      "Ġcome": 612,
      "Ġlast": 613,
      "ks": 614,
      "Ġac": 615,
      "Ġpoin": 616,
      "Ġpro": 617,
      "act": 618,
      "Ġmom": 619,
      "Ġthing": 620,
      "Ġmuch": 621,
      "Ġmoment": 622,
      "Ġtry": 623,
      "agic": 624,
      "ance": 625,
      "ine": 626,
      "Ġfo": 627,
      "ach": 628,
      "ool": 629,
      "Ġknew": 630,
      "dd": 631,
      "Ġshould": 632,
      "llow": 633,
      "uff": 634,
      "ople": 635,
      "ering": 636,
      "ress": 637,
      "ue": 638,
      "ied": 639,
      "ching": 640,
      "ord": 641,
      "Ġonce": 642,
      "Ġlittle": 643,
      "Ġfirst": 644,
      "Ġsil": 645,
      "Ġtwo": 646,
      "Ġsec": 647,
      "Ġmade": 648,
      "arts": 649,
      "Ġheard": 650,
      "ful": 651,
      "Ġleft": 652,
      "ugg": 653,
      "Ġhas": 654,
      "ĠMin": 655,
      "Ġpr": 656,
      "ever": 657,
      "ody": 658,
      "ĠFred": 659,
      "ped": 660,
      "Ġho": 661,
      "Ġbot": 662,
      "ont": 663,
      "Ġwa": 664,
      "ase": 665,
      "Ġgood": 666,
      "Ġwell": 667,
      "Ġfelt": 668,
      "ĠMrs": 669,
      "ĠOh": 670,
      "les": 671,
      "ish": 672,
      "Ġdes": 673,
      "Ġpeople": 674,
      "uck": 675,
      "Ġcont": 676,
      "warts": 677,
      "Ġwizard": 678,
      "ĠHogwarts": 679,
      "ber": 680,
      "nt": 681,
      "Ġreally": 682,
      "Ġdark": 683,
      "ady": 684,
      "Ġpull": 685,
      "Ġflo": 686,
      "room": 687,
      "ies": 688,
      "Ġmight": 689,
      "Ġits": 690,
      "Ġarm": 691,
      "Ġatt": 692,
      "Ġtal": 693,
      "ple": 694,
      "ross": 695,
      "udd": 696,
      "Ġstr": 697,
      "Ġsn": 698,
      "ose": 699,
      "Ġwal": 700,
      "ions": 701,
      "ory": 702,
      "less": 703,
      "rie": 704,
      "ille": 705,
      "ock": 706,
      "itch": 707,
      "ĠMc": 708,
      "Ġneed": 709,
      "ĠIn": 710,
      "ĠLup": 711,
      "ĠLupin": 712,
      "Ġfeel": 713,
      "ĠQ": 714,
      "ors": 715,
      "Ġfront": 716,
      "Ġam": 717,
      "xt": 718,
      "ĠJ": 719,
      "Ġwind": 720,
      "inny": 721,
      "per": 722,
      "ity": 723,
      "Ġco": 724,
      "Ġdr": 725,
      "ĠDo": 726,
      "hen": 727,
      "ĠGe": 728,
      "ough": 729,
      "Ġold": 730,
      "Ġsure": 731,
      "Ġever": 732,
      "ĠQu": 733,
      "ah": 734,
      "Ġopen": 735,
      "ise": 736,
      "Ġche": 737,
      "Ġmust": 738,
      "Ġem": 739,
      "Ġent": 740,
      "ouse": 741,
      "arly": 742,
      "orge": 743,
      "Ġbecause": 744,
      "Ġcr": 745,
      "ĠGeorge": 746,
      "oud": 747,
      "ĠNev": 748,
      "ĠNeville": 749,
      "ĠBe": 750,
      "ĠGinny": 751,
      "Ġmean": 752,
      "arge": 753,
      "Ġcame": 754,
      "ung": 755,
      "arm": 756,
      "Ġimp": 757,
      "me": 758,
      "Ġfeet": 759,
      "ced": 760,
      "ĠSt": 761,
      "ĠBl": 762,
      "Ġput": 763,
      "ign": 764,
      "cy": 765,
      "Ġpass": 766,
      "Ġhur": 767,
      "Ġbel": 768,
      "ream": 769,
      "ĠMcG": 770,
      "onag": 771,
      "ĠMcGonag": 772,
      "ĠMcGonagall": 773,
      "ost": 774,
      "Ġend": 775,
      "ence": 776,
      "Ġown": 777,
      "pl": 778,
      "unn": 779,
      "ons": 780,
      "Ġgreat": 781,
      "Ġfind": 782,
      "Ġcle": 783,
      "rew": 784,
      "ĠThat": 785,
      "Ġter": 786,
      "Ġtook": 787,
      "Ġday": 788,
      "Ġbed": 789,
      "Ġbit": 790,
      "anted": 791,
      "ourse": 792,
      "Ġsupp": 793,
      "Ġanything": 794,
      "here": 795,
      "Ġsur": 796,
      "ĠHow": 797,
      "Ġhard": 798,
      "Ġstand": 799,
      "Ġfew": 800,
      "Ġtrying": 801,
      "Ġtable": 802,
      "Ġhel": 803,
      "Ġmake": 804,
      "Ġtake": 805,
      "ĠSo": 806,
      "ater": 807,
      "chool": 808,
      "ished": 809,
      "Ġgi": 810,
      "Ġel": 811,
      "ents": 812,
      "ised": 813,
      "Ġlight": 814,
      "Ġwr": 815,
      "ryff": 816,
      "ĠGryff": 817,
      "ĠGryffind": 818,
      "ĠVer": 819,
      "Ġsecond": 820,
      "Ġfloor": 821,
      "ank": 822,
      "Ġanother": 823,
      "Ġwent": 824,
      "hes": 825,
      "iff": 826,
      "be": 827,
      "Ġhands": 828,
      "Ġnight": 829,
      "Ġword": 830,
      "Ġnext": 831,
      "ridge": 832,
      "Ġblack": 833,
      "Ġcur": 834,
      "Ġinside": 835,
      "Ġside": 836,
      "Ġkeep": 837,
      "Ġschool": 838,
      "Ġnew": 839,
      "ĠIf": 840,
      "Ġwhile": 841,
      "Ġlarge": 842,
      "Ġthree": 843,
      "Ġboy": 844,
      "iously": 845,
      "ĠYe": 846,
      "iet": 847,
      "Ġsound": 848,
      "Ġcall": 849,
      "cle": 850,
      "Ġra": 851,
      "Ġfound": 852,
      "ee": 853,
      "tered": 854,
      "body": 855,
      "Ġwhis": 856,
      "Ġlau": 857,
      "Ġupon": 858,
      "ully": 859,
      "ĠUmb": 860,
      "Ġwindow": 861,
      "ized": 862,
      "ĠUmbridge": 863,
      "ĠYes": 864,
      "Ġloud": 865,
      "Ġper": 866,
      "acher": 867,
      "az": 868,
      "Ġset": 869,
      "Ġsit": 870,
      "we": 871,
      "Ġhair": 872,
      "ĠDeath": 873,
      "get": 874,
      "Ġcourse": 875,
      "Ġgave": 876,
      "Ġret": 877,
      "Ġseen": 878,
      "ement": 879,
      "ary": 880,
      "ĠOn": 881,
      "istry": 882,
      "Ġnothing": 883,
      "Ġground": 884,
      "app": 885,
      "ip": 886,
      "ĠMinistry": 887,
      "ĠGryffindor": 888,
      "Ġwhy": 889,
      "Ġhelp": 890,
      "ix": 891,
      "Ġstood": 892,
      "ty": 893,
      "Ġsk": 894,
      "ĠUn": 895,
      "lled": 896,
      "ail": 897,
      "ild": 898,
      "Ġhear": 899,
      "Ġhalf": 900,
      "ĠAn": 901,
      "ĠHis": 902,
      "Ġfin": 903,
      "udden": 904,
      "Ġjo": 905,
      "ating": 906,
      "Ġreal": 907,
      "Ġonto": 908,
      "Ġair": 909,
      "ĠThen": 910,
      "Ġpulled": 911,
      "ĠMad": 912,
      "aw": 913,
      "iss": 914,
      "airs": 915,
      "Ġsudden": 916,
      "igh": 917,
      "Ġbook": 918,
      "ightly": 919,
      "Ġmat": 920,
      "ness": 921,
      "Ġwall": 922,
      "Ġlif": 923,
      "ĠAs": 924,
      "ĠPer": 925,
      "ĠYeah": 926,
      "Ġsat": 927,
      "ower": 928,
      "Ġshout": 929,
      "Ġyear": 930,
      "av": 931,
      "Ġour": 932,
      "Ġwanted": 933,
      "Ġcast": 934,
      "oody": 935,
      "ached": 936,
      "Ġacross": 937,
      "Ġfire": 938,
      "Ġbeg": 939,
      "ans": 940,
      "Ġquick": 941,
      "bby": 942,
      "Ġsqu": 943,
      "Ġstud": 944,
      "Ġbeing": 945,
      "os": 946,
      "Ġhouse": 947,
      "Ġwait": 948,
      "Ġplace": 949,
      "ways": 950,
      "ĠWho": 951,
      "Ġwasn": 952,
      "ump": 953,
      "Ġfollow": 954,
      "ible": 955,
      "Ġeach": 956,
      "Ġmost": 957,
      "Ġboth": 958,
      "ently": 959,
      "Ġwithout": 960,
      "ĠDark": 961,
      "unt": 962,
      "Ġmind": 963,
      "ey": 964,
      "lin": 965,
      "ings": 966,
      "Ġdoes": 967,
      "Ġdone": 968,
      "udge": 969,
      "Ġcor": 970,
      "Ġquiet": 971,
      "Ġclass": 972,
      "Ġyears": 973,
      "Ġquite": 974,
      "Ġsmall": 975,
      "Ġhappened": 976,
      "ng": 977,
      "Ġalong": 978,
      "ib": 979,
      "Ġmagic": 980,
      "Ġang": 981,
      "Ġcouldn": 982,
      "arted": 983,
      "ĠMugg": 984,
      "Ġagainst": 985,
      "ister": 986,
      "ening": 987,
      "Ġple": 988,
      "Ġbo": 989,
      "fully": 990,
      "non": 991,
      "Ġcare": 992,
      "ĠAr": 993,
      "Ġbetter": 994,
      "ru": 995,
      "Ġmout": 996,
      "Ġdoing": 997,
      "ĠNot": 998,
      "riend": 999,
      "aster": 1000,
      "Ġunt": 1001,
      "cted": 1002,
      "ĠVernon": 1003,
      "ĠMoody": 1004,
      "ric": 1005,
      "iling": 1006,
      "Ġbreat": 1007,
      "pered": 1008,
      "Ġexpe": 1009,
      "ying": 1010,
      "Ġmin": 1011,
      "ĠThis": 1012,
      "Ġelse": 1013,
      "Ġenough": 1014,
      "lu": 1015,
      "ten": 1016,
      "Ġste": 1017,
      "Ġfam": 1018,
      "ĠMagic": 1019,
      "ĠAll": 1020,
      "Ġkill": 1021,
      "Ġless": 1022,
      "bes": 1023,
      "Ġhold": 1024,
      "Ġmouth": 1025,
      "ĠPet": 1026,
      "Ġeye": 1027,
      "ready": 1028,
      "Ġmut": 1029,
      "Ġob": 1030,
      "amp": 1031,
      "tain": 1032,
      "Ġfore": 1033,
      "Ġres": 1034,
      "ĠMy": 1035,
      "aught": 1036,
      "Ġappe": 1037,
      "Ġgold": 1038,
      "li": 1039,
      "und": 1040,
      "ĠSly": 1041,
      "urs": 1042,
      "Ġalready": 1043,
      "pr": 1044,
      "therin": 1045,
      "ĠSlytherin": 1046,
      "Ġremem": 1047,
      "awn": 1048,
      "ove": 1049,
      "ret": 1050,
      "Ġstaring": 1051,
      "Ġrobes": 1052,
      "ia": 1053,
      "arn": 1054,
      "Ġpart": 1055,
      "ĠFudge": 1056,
      "Ġwalked": 1057,
      "ĠâĢĺ": 1058,
      "ĠUncle": 1059,
      "reak": 1060,
      "Ġfriend": 1061,
      "ĠDobby": 1062,
      "Ġpast": 1063,
      "Ġread": 1064,
      "Ġfell": 1065,
      "Ġbelie": 1066,
      "Ġforward": 1067,
      "Ġdiff": 1068,
      "ince": 1069,
      "ined": 1070,
      "iddle": 1071,
      "owed": 1072,
      "Ġrest": 1073,
      "Ġgone": 1074,
      "Ġtre": 1075,
      "Ġrather": 1076,
      "Ġtop": 1077,
      "pping": 1078,
      "anger": 1079,
      "sh": 1080,
      "Ġthose": 1081,
      "Ġwon": 1082,
      "Ġgre": 1083,
      "ably": 1084,
      "ween": 1085,
      "Ġwhispered": 1086,
      "form": 1087,
      "Ġthese": 1088,
      "ense": 1089,
      "Ġinst": 1090,
      "Ġstanding": 1091,
      "Ġreturn": 1092,
      "Ġsuddenly": 1093,
      "ained": 1094,
      "Ġbetween": 1095,
      "Ġsna": 1096,
      "Ġscar": 1097,
      "ged": 1098,
      "Ġinc": 1099,
      "ph": 1100,
      "ĠBlack": 1101,
      "Ġuntil": 1102,
      "Ġgive": 1103,
      "ĠWhen": 1104,
      "Ġbegan": 1105,
      "Ġcar": 1106,
      "udley": 1107,
      "ĠGr": 1108,
      "Ġfull": 1109,
      "dded": 1110,
      "most": 1111,
      "Ġcold": 1112,
      "Ġopened": 1113,
      "ens": 1114,
      "ange": 1115,
      "Ġtried": 1116,
      "Ġrec": 1117,
      "Ġmany": 1118,
      "Ġlist": 1119,
      "Ġyet": 1120,
      "ĠWhy": 1121,
      "Ġbro": 1122,
      "ĠDudley": 1123,
      "Ġslightly": 1124,
      "Ġglass": 1125,
      "Ġminut": 1126,
      "wl": 1127,
      "Ġsto": 1128,
      "ither": 1129,
      "Ġcou": 1130,
      "Ġsitting": 1131,
      "Ġwond": 1132,
      "Ġquickly": 1133,
      "idditch": 1134,
      "mon": 1135,
      "Ġthings": 1136,
      "ĠQuidditch": 1137,
      "ĠSlu": 1138,
      "oke": 1139,
      "Ġhor": 1140,
      "Ġdro": 1141,
      "Ġsame": 1142,
      "Ġtalking": 1143,
      "Ġdist": 1144,
      "Ġraised": 1145,
      "ĠLord": 1146,
      "Ġoffice": 1147,
      "Ġclose": 1148,
      "Ġcorrid": 1149,
      "Ġstart": 1150,
      "ĠPercy": 1151,
      "ghorn": 1152,
      "ĠSe": 1153,
      "ult": 1154,
      "Ġad": 1155,
      "Ġreached": 1156,
      "Ġcastle": 1157,
      "Ġbad": 1158,
      "Ġstarted": 1159,
      "irl": 1160,
      "ames": 1161,
      "ĠSlughorn": 1162,
      "cc": 1163,
      "ĠNow": 1164,
      "ĠHall": 1165,
      "ention": 1166,
      "Ġdeep": 1167,
      "Ġwouldn": 1168,
      "Ġslow": 1169,
      "Ġfour": 1170,
      "Ġunderst": 1171,
      "cket": 1172,
      "day": 1173,
      "Ġfac": 1174,
      "gether": 1175,
      "Ġable": 1176,
      "Ġhigh": 1177,
      "Ġdead": 1178,
      "Ġfing": 1179,
      "head": 1180,
      "Ġpain": 1181,
      "igg": 1182,
      "Ġfoot": 1183,
      "Ġexp": 1184,
      "aken": 1185,
      "Ġalways": 1186,
      "tering": 1187,
      "Ġshouted": 1188,
      "Ġname": 1189,
      "Ġalmost": 1190,
      "Ġstra": 1191,
      "osed": 1192,
      "lves": 1193,
      "Ġide": 1194,
      "Ġtogether": 1195,
      "Ġanyone": 1196,
      "Ġcalled": 1197,
      "med": 1198,
      "aters": 1199,
      "Ġlater": 1200,
      "Ġcoming": 1201,
      "Ġfather": 1202,
      "Ġwork": 1203,
      "Ġdec": 1204,
      "der": 1205,
      "erv": 1206,
      "ĠDon": 1207,
      "Ġusu": 1208,
      "Ġ)": 1209,
      "Ġuse": 1210,
      "Ġgirl": 1211,
      "Ġind": 1212,
      "rac": 1213,
      "ured": 1214,
      "Ġhour": 1215,
      "Ġmem": 1216,
      "ately": 1217,
      "vis": 1218,
      "ĠEr": 1219,
      "Ġbes": 1220,
      "Ġdrag": 1221,
      "Ġstared": 1222,
      "Ġbroom": 1223,
      "Ġposs": 1224,
      "Ġsle": 1225,
      "Ġpers": 1226,
      "Ġscream": 1227,
      "Ġhowever": 1228,
      "Ġcontin": 1229,
      "Ġfeeling": 1230,
      "Ġfar": 1231,
      "Ġgu": 1232,
      "Ġcrow": 1233,
      "Ġswe": 1234,
      "sw": 1235,
      "Ġsight": 1236,
      "ĠAl": 1237,
      "Ġowl": 1238,
      "cus": 1239,
      "Ġcorn": 1240,
      "Ġpar": 1241,
      "unk": 1242,
      "Ġcrowd": 1243,
      "Ġwatching": 1244,
      "Ġwhole": 1245,
      "Ġyeh": 1246,
      "Ġquietly": 1247,
      "ron": 1248,
      "ĠFor": 1249,
      "Ġstudents": 1250,
      "ere": 1251,
      "ited": 1252,
      "ought": 1253,
      "raw": 1254,
      "Ġsign": 1255,
      "Ġdet": 1256,
      "Ġvis": 1257,
      "Ġleg": 1258,
      "rabb": 1259,
      "eps": 1260,
      "Ġempt": 1261,
      "iv": 1262,
      "Ġmar": 1263,
      "Ġlot": 1264,
      "ĠSc": 1265,
      "Ġbeside": 1266,
      "Ġmother": 1267,
      "Ġhall": 1268,
      "owing": 1269,
      "Ġred": 1270,
      "aps": 1271,
      "Ġaw": 1272,
      "ird": 1273,
      "ued": 1274,
      "Ġfur": 1275,
      "orry": 1276,
      "ĠEaters": 1277,
      "ures": 1278,
      "Ġheart": 1279,
      "Ġask": 1280,
      "Ġstraight": 1281,
      "Ġpic": 1282,
      "Ġletter": 1283,
      "Ġgreen": 1284,
      "iled": 1285,
      "Ġstop": 1286,
      "Ġwee": 1287,
      "Ġoutside": 1288,
      "Ġeveryone": 1289,
      "Ġlow": 1290,
      "una": 1291,
      "Ġeverything": 1292,
      "rest": 1293,
      "ĠMuggle": 1294,
      "Ġsir": 1295,
      "ĠKn": 1296,
      "Ġcaught": 1297,
      "Ġdement": 1298,
      "Ġmove": 1299,
      "Ġcat": 1300,
      "ĠLuna": 1301,
      "imes": 1302,
      "Ġansw": 1303,
      "Ġwhether": 1304,
      "Ġbest": 1305,
      "Ġlife": 1306,
      "ene": 1307,
      "Ġisn": 1308,
      "Ġkept": 1309,
      "Ġsupposed": 1310,
      "anc": 1311,
      "Ġdef": 1312,
      "Ġpassed": 1313,
      "Ġidea": 1314,
      "Ġce": 1315,
      "Ġbelieve": 1316,
      "ply": 1317,
      "Ġact": 1318,
      "ĠCrou": 1319,
      "Ġstopped": 1320,
      "Ġslowly": 1321,
      "Ġsaying": 1322,
      "Ġwords": 1323,
      "Ġbur": 1324,
      "ith": 1325,
      "Ġhope": 1326,
      "Ġmuttered": 1327,
      "Ġri": 1328,
      "Ġhit": 1329,
      "Ġpot": 1330,
      "ĠAt": 1331,
      "ĠMadam": 1332,
      "Ġgetting": 1333,
      "ĠCrouch": 1334,
      "ier": 1335,
      "Ġ(": 1336,
      "Ġhome": 1337,
      "ci": 1338,
      "Ġyes": 1339,
      "Ġsince": 1340,
      "Ġbreak": 1341,
      "Ġhaven": 1342,
      "Ġbreath": 1343,
      "Ġwhite": 1344,
      "Ġwizards": 1345,
      "ĠCed": 1346,
      "ĠEx": 1347,
      "Ġplay": 1348,
      "Ġsomeone": 1349,
      "ĠSh": 1350,
      "Ġshort": 1351,
      "Ġtaken": 1352,
      "rif": 1353,
      "ize": 1354,
      "acked": 1355,
      "rum": 1356,
      "Ġlaugh": 1357,
      "ject": 1358,
      "Ġsort": 1359,
      "Ġstay": 1360,
      "ĠCedric": 1361,
      "fort": 1362,
      "ĠAunt": 1363,
      "Ġmoved": 1364,
      "where": 1365,
      "Ġfall": 1366,
      "Ġlea": 1367,
      "Ġmaking": 1368,
      "rible": 1369,
      "Ġleave": 1370,
      "Ġext": 1371,
      "Ġcloak": 1372,
      "Ġholding": 1373,
      "Ġdi": 1374,
      "Ġstone": 1375,
      "Ġempty": 1376,
      "reacher": 1377,
      "aged": 1378,
      "Ġnose": 1379,
      "ĠKreacher": 1380,
      "orning": 1381,
      "Ġunderstand": 1382,
      "ging": 1383,
      "light": 1384,
      "phe": 1385,
      "ati": 1386,
      "Ġcomp": 1387,
      "Ġdisapp": 1388,
      "ursley": 1389,
      "ĠDursley": 1390,
      "cept": 1391,
      "Ġquest": 1392,
      "Ġcorridor": 1393,
      "Ġwater": 1394,
      "Ġsilence": 1395,
      "rel": 1396,
      "ĠSn": 1397,
      "ility": 1398,
      "Ġtalk": 1399,
      "Ġwearing": 1400,
      "ĠBill": 1401,
      "Ġalone": 1402,
      "Ġloudly": 1403,
      "Ġtaking": 1404,
      "Ġbus": 1405,
      "Ġexam": 1406,
      "Ġhadn": 1407,
      "Ġappeared": 1408,
      "ĠFil": 1409,
      "Ġblood": 1410,
      "Ġpoint": 1411,
      "Ġminutes": 1412,
      "Ġteacher": 1413,
      "lit": 1414,
      "ins": 1415,
      "ided": 1416,
      "Ġinte": 1417,
      "ĠRe": 1418,
      "ĠClo": 1419,
      "Ġexc": 1420,
      "Ġshoulder": 1421,
      "iding": 1422,
      "Ġpointed": 1423,
      "Ġarri": 1424,
      "Ġbag": 1425,
      "Ġmorning": 1426,
      "Ġsurpr": 1427,
      "haps": 1428,
      "Ġhat": 1429,
      "ub": 1430,
      "ushed": 1431,
      "rave": 1432,
      "Ġsilver": 1433,
      "man": 1434,
      "ertain": 1435,
      "Ġbright": 1436,
      "anks": 1437,
      "ĠRiddle": 1438,
      "Ġarms": 1439,
      "Ġpower": 1440,
      "umm": 1441,
      "Ġspell": 1442,
      "Ġfollowed": 1443,
      "ĠPetun": 1444,
      "Ġremember": 1445,
      "Ġelf": 1446,
      "ĠWhere": 1447,
      "ĠPetunia": 1448,
      "ken": 1449,
      "iny": 1450,
      "Ġdire": 1451,
      "Ġstuff": 1452,
      "ĠFle": 1453,
      "ously": 1454,
      "Ġwatched": 1455,
      "ale": 1456,
      "fect": 1457,
      "read": 1458,
      "Ġkind": 1459,
      "Ġpointing": 1460,
      "Ġfle": 1461,
      "itc": 1462,
      "Ġrel": 1463,
      "Ġmeet": 1464,
      "Ġacc": 1465,
      "Ġmatter": 1466,
      "anced": 1467,
      "iced": 1468,
      "Ġsever": 1469,
      "ĠOr": 1470,
      "ĠJust": 1471,
      "Ġmon": 1472,
      "Ġspot": 1473,
      "ĠCloak": 1474,
      "kay": 1475,
      "Ġser": 1476,
      "Ġfly": 1477,
      "Ġclosed": 1478,
      "ression": 1479,
      "Ġins": 1480,
      "Ġteam": 1481,
      "Ġchair": 1482,
      "Ġcomple": 1483,
      "Ġcommon": 1484,
      "actly": 1485,
      "Ġdesk": 1486,
      "Ġcorner": 1487,
      "ĠFilch": 1488,
      "ror": 1489,
      "Ġinter": 1490,
      "ĠTH": 1491,
      "Ġthinking": 1492,
      "Ġothers": 1493,
      "Ġseveral": 1494,
      "Ġpat": 1495,
      "Ġentr": 1496,
      "Ġhurried": 1497,
      "ows": 1498,
      "ĠCome": 1499,
      "ĠEvery": 1500,
      "ĠMinister": 1501,
      "Ġfast": 1502,
      "imb": 1503,
      "ĠDid": 1504,
      "Ġref": 1505,
      "uring": 1506,
      "antly": 1507,
      "Ġsuch": 1508,
      "Ġhaving": 1509,
      "selves": 1510,
      "oyle": 1511,
      "ired": 1512,
      "Ġshaking": 1513,
      "so": 1514,
      "Ġten": 1515,
      "ash": 1516,
      "sit": 1517,
      "Ġdoesn": 1518,
      "Ġperson": 1519,
      "bo": 1520,
      "Ġbody": 1521,
      "lock": 1522,
      "Ġfamily": 1523,
      "Ġsent": 1524,
      "ĠHor": 1525,
      "Ġmet": 1526,
      "Ġseat": 1527,
      "nding": 1528,
      "Ġmis": 1529,
      "Ġlay": 1530,
      "ased": 1531,
      "vers": 1532,
      "Ġattem": 1533,
      "Ġgiven": 1534,
      "Ġusual": 1535,
      "ashed": 1536,
      "Ġheav": 1537,
      "Ġsorry": 1538,
      "Ġthick": 1539,
      "Ġspeak": 1540,
      "Ġdanger": 1541,
      "Ġnear": 1542,
      "rait": 1543,
      "unning": 1544,
      "ibility": 1545,
      "vent": 1546,
      "Ġfree": 1547,
      "Ġyelled": 1548,
      "nts": 1549,
      "rey": 1550,
      "Ġgaz": 1551,
      "ĠLock": 1552,
      "Ġconf": 1553,
      "Ġused": 1554,
      "Ġbooks": 1555,
      "Ġdirect": 1556,
      "Ġheld": 1557,
      "chment": 1558,
      "cl": 1559,
      "Ġmay": 1560,
      "Ġneck": 1561,
      "Ġtelling": 1562,
      "ches": 1563,
      "Ġtrou": 1564,
      "Ġbu": 1565,
      "Ġmist": 1566,
      "Ġstre": 1567,
      "ĠHead": 1568,
      "Ġvan": 1569,
      "Ġpocket": 1570,
      "idden": 1571,
      "Ġparchment": 1572,
      "oc": 1573,
      "Ġmur": 1574,
      "ĠTon": 1575,
      "ored": 1576,
      "ster": 1577,
      "Ġsub": 1578,
      "Ġwrong": 1579,
      "itchen": 1580,
      "aven": 1581,
      "Ġfight": 1582,
      "Ġport": 1583,
      "Ġkitchen": 1584,
      "Ġentrance": 1585,
      "ps": 1586,
      "Ġed": 1587,
      "ĠBag": 1588,
      "ĠKrum": 1589,
      "Ġwatch": 1590,
      "Ġprot": 1591,
      "ipped": 1592,
      "sp": 1593,
      "Ġfact": 1594,
      "ĠGreat": 1595,
      "Ġunc": 1596,
      "Ġexpl": 1597,
      "auld": 1598,
      "Ġlost": 1599,
      "ĠBell": 1600,
      "Ġdementors": 1601,
      "hart": 1602,
      "ze": 1603,
      "Ġfive": 1604,
      "rying": 1605,
      "icul": 1606,
      "ĠLook": 1607,
      "Ġburst": 1608,
      "ĠTrel": 1609,
      "awney": 1610,
      "ĠTrelawney": 1611,
      "Ġadded": 1612,
      "Ġsim": 1613,
      "Ġodd": 1614,
      "Ġmoving": 1615,
      "Ġcontinued": 1616,
      "ĠLockhart": 1617,
      "Ġsaf": 1618,
      "Ġfingers": 1619,
      "sing": 1620,
      "ĠKnow": 1621,
      "ĠFleur": 1622,
      "eak": 1623,
      "ingly": 1624,
      "Ġeither": 1625,
      "Ġshut": 1626,
      "ER": 1627,
      "abb": 1628,
      "Ġrep": 1629,
      "Ġforg": 1630,
      "blin": 1631,
      "you": 1632,
      "Ġdou": 1633,
      "Ġexpect": 1634,
      "tail": 1635,
      "ork": 1636,
      "lly": 1637,
      "Ġnumb": 1638,
      "ĠPr": 1639,
      "aming": 1640,
      "Ġanswer": 1641,
      "Ġcomplete": 1642,
      "ĠGood": 1643,
      "Ġsmile": 1644,
      "ĠTonks": 1645,
      "undred": 1646,
      "Ġdied": 1647,
      "Ġpare": 1648,
      "Ġexactly": 1649,
      "ĠOne": 1650,
      "Ġinterest": 1651,
      "Ġran": 1652,
      "Ġdiffere": 1653,
      "ĠDrac": 1654,
      "Ġdream": 1655,
      "ĠGoyle": 1656,
      "Ġdear": 1657,
      "ĠDraco": 1658,
      "case": 1659,
      "ining": 1660,
      "Ġears": 1661,
      "rive": 1662,
      "Ġthemselves": 1663,
      "Ġhundred": 1664,
      "nded": 1665,
      "ĠFire": 1666,
      "Ġsoon": 1667,
      "ĠCrabb": 1668,
      "Ġdays": 1669,
      "tom": 1670,
      "ually": 1671,
      "Ġtiny": 1672,
      "aced": 1673,
      "Ġyoung": 1674,
      "Ġshar": 1675,
      "Ġportrait": 1676,
      "ĠCrabbe": 1677,
      "ren": 1678,
      "Ġbene": 1679,
      "ann": 1680,
      "ĠCharm": 1681,
      "ead": 1682,
      "oun": 1683,
      "Ġland": 1684,
      "ĠBagman": 1685,
      "Ġcup": 1686,
      "esc": 1687,
      "Ġnearly": 1688,
      "Ġdeath": 1689,
      "Ġwaiting": 1690,
      "Ġreturned": 1691,
      "cru": 1692,
      "Ġstair": 1693,
      "ically": 1694,
      "Ġwitch": 1695,
      "Ġpres": 1696,
      "like": 1697,
      "Ġshook": 1698,
      "Ġknock": 1699,
      "Ġru": 1700,
      "Ġspoke": 1701,
      "ield": 1702,
      "anged": 1703,
      "Ġsnake": 1704,
      "Ġdropped": 1705,
      "Ġsleep": 1706,
      "ĠHorcru": 1707,
      "ĠHorcrux": 1708,
      "ping": 1709,
      "Ġround": 1710,
      "oth": 1711,
      "Ġshall": 1712,
      "Ġspr": 1713,
      "Ġtrain": 1714,
      "Ġdarkness": 1715,
      "inging": 1716,
      "Ġabove": 1717,
      "Ġturning": 1718,
      "ntly": 1719,
      "Ġparents": 1720,
      "Ġtou": 1721,
      "ively": 1722,
      "aff": 1723,
      "Ġnoticed": 1724,
      "Ġrun": 1725,
      "ĠLet": 1726,
      "Ġnoise": 1727,
      "Ġago": 1728,
      "Ġplease": 1729,
      "ĠTHE": 1730,
      "lling": 1731,
      "Ġalso": 1732,
      "Ġtri": 1733,
      "Ġpur": 1734,
      "stairs": 1735,
      "Ġleast": 1736,
      "Ġappro": 1737,
      "Ġtimes": 1738,
      "Ġstairs": 1739,
      "inning": 1740,
      "Ġve": 1741,
      "Ġwide": 1742,
      "Ġgas": 1743,
      "umped": 1744,
      "Ġhurt": 1745,
      "ĠDursleys": 1746,
      "ax": 1747,
      "Ġsteps": 1748,
      "Ġgoblin": 1749,
      "Ġexcept": 1750,
      "Ġlying": 1751,
      "ourn": 1752,
      "Ġclut": 1753,
      "Ġforest": 1754,
      "Ġbeneath": 1755,
      "Ġcarry": 1756,
      "uth": 1757,
      "ĠOf": 1758,
      "Ġentered": 1759,
      "Ġgolden": 1760,
      "Ġceiling": 1761,
      "Ġsix": 1762,
      "Ġfa": 1763,
      "ĠSome": 1764,
      "upid": 1765,
      "Ġcheck": 1766,
      "Ġfinished": 1767,
      "ald": 1768,
      "ets": 1769,
      "Ġreg": 1770,
      "ckon": 1771,
      "Ġgiant": 1772,
      "br": 1773,
      "Ġsus": 1774,
      "Ġdoors": 1775,
      "ĠInvis": 1776,
      "mas": 1777,
      "Ġburn": 1778,
      "ason": 1779,
      "Ġwhose": 1780,
      "arely": 1781,
      "apt": 1782,
      "Ġchest": 1783,
      "Ġleaving": 1784,
      "wig": 1785,
      "Ġwom": 1786,
      "Ġph": 1787,
      "Ġev": 1788,
      "ĠWith": 1789,
      "Ġneare": 1790,
      "Ġsoft": 1791,
      "ĠInvisibility": 1792,
      "ination": 1793,
      "ount": 1794,
      "Ġnerv": 1795,
      "Ġshock": 1796,
      "artment": 1797,
      "abin": 1798,
      "ĠCho": 1799,
      "ĠDean": 1800,
      "Ġwrit": 1801,
      "Ġgrounds": 1802,
      "Ġfriends": 1803,
      "uc": 1804,
      "Ġcase": 1805,
      "Ġcross": 1806,
      "amed": 1807,
      "Ġmagical": 1808,
      "rist": 1809,
      "Ġton": 1810,
      "ĠHed": 1811,
      "ĠIs": 1812,
      "enty": 1813,
      "Ġrepe": 1814,
      "Ġpract": 1815,
      "Ġtrouble": 1816,
      "ĠHer": 1817,
      "Ġopp": 1818,
      "Ġstro": 1819,
      "Ġstupid": 1820,
      "Ġrealized": 1821,
      "Ġquestion": 1822,
      "Ġstaircase": 1823,
      "ĠHedwig": 1824,
      "Ġfill": 1825,
      "Ġdraw": 1826,
      "Ġthrew": 1827,
      "aned": 1828,
      "ĠWizard": 1829,
      "ĠChrist": 1830,
      "Ġcoll": 1831,
      "Ġclear": 1832,
      "Ġflew": 1833,
      "ĠChristmas": 1834,
      "Ġmid": 1835,
      "Ġmanaged": 1836,
      "ressed": 1837,
      "Ġarrived": 1838,
      "oon": 1839,
      "Ġer": 1840,
      "Ġap": 1841,
      "rily": 1842,
      "apter": 1843,
      "Ġlegs": 1844,
      "Ġesc": 1845,
      "stick": 1846,
      "ĠSever": 1847,
      "akes": 1848,
      "Ġchance": 1849,
      "atri": 1850,
      "Ġmad": 1851,
      "ages": 1852,
      "Ġrunning": 1853,
      "Ġpotion": 1854,
      "Ġeas": 1855,
      "ĠWorm": 1856,
      "Ġlooks": 1857,
      "aper": 1858,
      "rified": 1859,
      "ĠBellatri": 1860,
      "ĠBellatrix": 1861,
      "OU": 1862,
      "Ġtent": 1863,
      "ising": 1864,
      "Ġbecame": 1865,
      "Ġimport": 1866,
      "board": 1867,
      "ug": 1868,
      "Ġcreat": 1869,
      "ush": 1870,
      "Ġenorm": 1871,
      "Ġmatch": 1872,
      "Ġwalls": 1873,
      "Ġknown": 1874,
      "ief": 1875,
      "Ġglanced": 1876,
      "Ġglasses": 1877,
      "ĠWormtail": 1878,
      "eed": 1879,
      "ishing": 1880,
      "ĠCr": 1881,
      "Ġnobody": 1882,
      "Ġclimb": 1883,
      "Ġattack": 1884,
      "Ġwindows": 1885,
      "Ġvanished": 1886,
      "Ġcent": 1887,
      "Ġeff": 1888,
      "alm": 1889,
      "str": 1890,
      "Ġsays": 1891,
      "Ġlonger": 1892,
      "Ġevening": 1893,
      "Ġbrother": 1894,
      "Ġperhaps": 1895,
      "Ġexpression": 1896,
      "Ġpict": 1897,
      "ger": 1898,
      "used": 1899,
      "ĠWood": 1900,
      "Ġpress": 1901,
      "Ġforgot": 1902,
      "wo": 1903,
      "Ġwarn": 1904,
      "Ġocc": 1905,
      "Ġcertain": 1906,
      "vered": 1907,
      "ĠAg": 1908,
      "Ġworld": 1909,
      "ĠAlb": 1910,
      "Ġwoman": 1911,
      "Ġson": 1912,
      "ĠHouse": 1913,
      "Ġpie": 1914,
      "Ġinform": 1915,
      "Ġear": 1916,
      "Ġseized": 1917,
      "Ġtrunk": 1918,
      "olt": 1919,
      "Ġemer": 1920,
      "vo": 1921,
      "Ġfif": 1922,
      "Ġwithin": 1923,
      "Ġwalking": 1924,
      "Ġcol": 1925,
      "ident": 1926,
      "Ġconc": 1927,
      "iew": 1928,
      "IN": 1929,
      "Ġhop": 1930,
      "icked": 1931,
      "Ġready": 1932,
      "Ġmeant": 1933,
      "Ġnumber": 1934,
      "Ġenormous": 1935,
      "inted": 1936,
      "ask": 1937,
      "Ġthr": 1938,
      "Ġint": 1939,
      "Ġdisappe": 1940,
      "bably": 1941,
      "rup": 1942,
      "Ġbar": 1943,
      "Ġluck": 1944,
      "let": 1945,
      "ĠSee": 1946,
      "ogn": 1947,
      "Ġsword": 1948,
      "kes": 1949,
      "ser": 1950,
      "work": 1951,
      "ĠGo": 1952,
      "Ġlead": 1953,
      "Ġpulling": 1954,
      "ĠJames": 1955,
      "Ġsafe": 1956,
      "Ġhang": 1957,
      "ĠProphe": 1958,
      "ĠAny": 1959,
      "Ġfig": 1960,
      "Ġthin": 1961,
      "Ġass": 1962,
      "Ġherself": 1963,
      "Ġknows": 1964,
      "Ġhappy": 1965,
      "Ġfinally": 1966,
      "tly": 1967,
      "Ġsumm": 1968,
      "Ġwood": 1969,
      "als": 1970,
      "Ġshad": 1971,
      "Ġbelow": 1972,
      "Ġangry": 1973,
      "Ġrememb": 1974,
      "Ġign": 1975,
      "ĠAre": 1976,
      "ĠPar": 1977,
      "Ġwands": 1978,
      "ations": 1979,
      "Ġangrily": 1980,
      "Ġkilled": 1981,
      "off": 1982,
      "rely": 1983,
      "Ġinv": 1984,
      "amus": 1985,
      "aining": 1986,
      "Ġblue": 1987,
      "Ġlistening": 1988,
      "Ġbroken": 1989,
      "ĠSeamus": 1990,
      "Ġweek": 1991,
      "Ġtonight": 1992,
      "int": 1993,
      "Ġsun": 1994,
      "Ġokay": 1995,
      "Ġcir": 1996,
      "inking": 1997,
      "kab": 1998,
      "zkab": 1999,
      "aning": 2000,
      "ices": 2001,
      "ĠAzkab": 2002,
      "Ġheads": 2003,
      "Ġsmiling": 2004,
      "ection": 2005,
      "unny": 2006,
      "Ġinstead": 2007,
      "Ġrecogn": 2008,
      "Ġflying": 2009,
      "ĠAlbus": 2010,
      "ĠAzkaban": 2011,
      "Ġcut": 2012,
      "Ġmiss": 2013,
      "Ġpale": 2014,
      "rought": 2015,
      "Ġflat": 2016,
      "ĠChapter": 2017,
      "Ġjob": 2018,
      "ĠArts": 2019,
      "Ġbroke": 2020,
      "Ġthro": 2021,
      "ĠCan": 2022,
      "orth": 2023,
      "ĠEater": 2024,
      "Ġtrue": 2025,
      "Ġclearly": 2026,
      "Ġcompletely": 2027,
      "ye": 2028,
      "rell": 2029,
      "Ġbat": 2030,
      "roll": 2031,
      "ĠRaven": 2032,
      "Ġcons": 2033,
      "arently": 2034,
      "Ġseconds": 2035,
      "oom": 2036,
      "Ġz": 2037,
      "Ġball": 2038,
      "Ġegg": 2039,
      "aled": 2040,
      "cho": 2041,
      "pect": 2042,
      "inky": 2043,
      "Ġnodded": 2044,
      "icking": 2045,
      "Ġsuppose": 2046,
      "Ġlesson": 2047,
      "Ġdragon": 2048,
      "Ġmonth": 2049,
      "Ġtor": 2050,
      "ĠAh": 2051,
      "Ġanyway": 2052,
      "ĠKark": 2053,
      "ĠMuggles": 2054,
      "Ġtrees": 2055,
      "Ġmemory": 2056,
      "Ġvisit": 2057,
      "claw": 2058,
      "ĠRavenclaw": 2059,
      "ell": 2060,
      "mit": 2061,
      "oul": 2062,
      "Ġmention": 2063,
      "Ġreason": 2064,
      "Ġbackward": 2065,
      "ĠDef": 2066,
      "ĠMagical": 2067,
      "ĠSnitch": 2068,
      "ĠProphet": 2069,
      "arrow": 2070,
      "isk": 2071,
      "ison": 2072,
      "ider": 2073,
      "Ġthrow": 2074,
      "Ġgri": 2075,
      "Ġecho": 2076,
      "Ġshow": 2077,
      "inner": 2078,
      "Ġrepeated": 2079,
      "OR": 2080,
      "Ġill": 2081,
      "Ġbarely": 2082,
      "Ġled": 2083,
      "ains": 2084,
      "Ġought": 2085,
      "Ġhidden": 2086,
      "Ġstret": 2087,
      "Ġwhom": 2088,
      "ĠAfter": 2089,
      "Ġdisc": 2090,
      "Ġir": 2091,
      "Ġreckon": 2092,
      "Ġlearn": 2093,
      "Ġtears": 2094,
      "Ġheadm": 2095,
      "Ġimag": 2096,
      "Ġforced": 2097,
      "ĠYour": 2098,
      "Ġgray": 2099,
      "Ġdoub": 2100,
      "ghed": 2101,
      "Ġahead": 2102,
      "Ġbow": 2103,
      "Ġgle": 2104,
      "Ġeag": 2105,
      "Ġstory": 2106,
      "ĠPat": 2107,
      "Ġshot": 2108,
      "Ġscr": 2109,
      "Ġstrange": 2110,
      "Ġcovered": 2111,
      "Ġbox": 2112,
      "ike": 2113,
      "Ġmir": 2114,
      "unch": 2115,
      "Ġblank": 2116,
      "Ġgiving": 2117,
      "Ġsky": 2118,
      "Ġhorrible": 2119,
      "AR": 2120,
      "iness": 2121,
      "Ġhum": 2122,
      "orrow": 2123,
      "Ġpair": 2124,
      "Ġrat": 2125,
      "Ġquill": 2126,
      "Ġhappen": 2127,
      "Ġhours": 2128,
      "auldron": 2129,
      "Ġdifferent": 2130,
      "Ġwing": 2131,
      "Ġbig": 2132,
      "orted": 2133,
      "Ġdorm": 2134,
      "Ġmiddle": 2135,
      "Ġthird": 2136,
      "imm": 2137,
      "ĠTr": 2138,
      "ĠMay": 2139,
      "ĠApp": 2140,
      "Ġcabin": 2141,
      "ane": 2142,
      "ĠTo": 2143,
      "ĠRight": 2144,
      "ĠPee": 2145,
      "ĠFr": 2146,
      "Ġstepped": 2147,
      "Ġsnapped": 2148,
      "Ġimportant": 2149,
      "ates": 2150,
      "isted": 2151,
      "Ġlake": 2152,
      "ooksh": 2153,
      "Ġanx": 2154,
      "ĠCrooksh": 2155,
      "ĠCrookshanks": 2156,
      "de": 2157,
      "aroff": 2158,
      "ĠWinky": 2159,
      "Ġfear": 2160,
      "Ġyourself": 2161,
      "Ġprete": 2162,
      "Ġdeser": 2163,
      "lessly": 2164,
      "ĠOrder": 2165,
      "ĠAgain": 2166,
      "ĠKarkaroff": 2167,
      "ern": 2168,
      "Ġfre": 2169,
      "atur": 2170,
      "ition": 2171,
      "Ġcop": 2172,
      "omf": 2173,
      "ĠMar": 2174,
      "aped": 2175,
      "Ġtruth": 2176,
      "Ġpoints": 2177,
      "ancing": 2178,
      "Ġdormit": 2179,
      "ĠPeeves": 2180,
      "ial": 2181,
      "Ġsing": 2182,
      "ita": 2183,
      "Ġlate": 2184,
      "Ġpushed": 2185,
      "ĠRita": 2186,
      "Ġprobably": 2187,
      "Ġdangerous": 2188,
      "Ġcarrying": 2189,
      "Ġtem": 2190,
      "Ġbrought": 2191,
      "Ġfine": 2192,
      "Ġsho": 2193,
      "ĠLe": 2194,
      "Ġtrans": 2195,
      "uffle": 2196,
      "Ġstrugg": 2197,
      "ape": 2198,
      "Ġgh": 2199,
      "Ġstom": 2200,
      "vering": 2201,
      "ĠPomf": 2202,
      "ĠVery": 2203,
      "Ġpossible": 2204,
      "Ġexcited": 2205,
      "Ġstreet": 2206,
      "Ġsummer": 2207,
      "ĠPomfrey": 2208,
      "Ġfright": 2209,
      "Ġduring": 2210,
      "Ġrose": 2211,
      "Ġyeah": 2212,
      "ĠKe": 2213,
      "Ġsilent": 2214,
      "Ġdesper": 2215,
      "ixed": 2216,
      "ipp": 2217,
      "rim": 2218,
      "ta": 2219,
      "Ġmaster": 2220,
      "ĠDad": 2221,
      "Ġroared": 2222,
      "ular": 2223,
      "Ġchamp": 2224,
      "Ġhardly": 2225,
      "Ġsounded": 2226,
      "Ġhast": 2227,
      "Ġshrie": 2228,
      "Ġsugg": 2229,
      "bbing": 2230,
      "teen": 2231,
      "Ġobject": 2232,
      "Ġwonder": 2233,
      "Ġfaces": 2234,
      "Ġadd": 2235,
      "Ġsister": 2236,
      "Ġfro": 2237,
      "Ġcalm": 2238,
      "icult": 2239,
      "Ġform": 2240,
      "Ġbottle": 2241,
      "Ġlaughed": 2242,
      "gy": 2243,
      "rit": 2244,
      "Ġworse": 2245,
      "Ġaren": 2246,
      "Ġpleased": 2247,
      "Ġexpected": 2248,
      "Ġobv": 2249,
      "Ġpicked": 2250,
      "Ġedge": 2251,
      "sme": 2252,
      "Ġhung": 2253,
      "Ġcried": 2254,
      "Ġglo": 2255,
      "ghter": 2256,
      "ĠPl": 2257,
      "ĠCup": 2258,
      "thur": 2259,
      "ĠHogsme": 2260,
      "Ġlaughter": 2261,
      "ĠArthur": 2262,
      "Ġcouple": 2263,
      "more": 2264,
      "rol": 2265,
      "ĠDigg": 2266,
      "Ġjumped": 2267,
      "Ġnews": 2268,
      "Ġdifficult": 2269,
      "medi": 2270,
      "ĠScrim": 2271,
      "ĠHogsmeade": 2272,
      "puff": 2273,
      "Ġhot": 2274,
      "ĠHuffle": 2275,
      "Ġpun": 2276,
      "geour": 2277,
      "Ġcloser": 2278,
      "ĠScrimgeour": 2279,
      "ĠHufflepuff": 2280,
      "ON": 2281,
      "Ġdrew": 2282,
      "Ġparticul": 2283,
      "Ġgirls": 2284,
      "Ġheavy": 2285,
      "ĠSeverus": 2286,
      "uge": 2287,
      "Ġwild": 2288,
      "oring": 2289,
      "Ġnorm": 2290,
      "aching": 2291,
      "ters": 2292,
      "ĠFl": 2293,
      "Ġstomach": 2294,
      "apped": 2295,
      "Ġtree": 2296,
      "Ġbas": 2297,
      "Ġfunny": 2298,
      "ote": 2299,
      "ament": 2300,
      "ĠGri": 2301,
      "Ġposit": 2302,
      "Ġindeed": 2303,
      "Ġapart": 2304,
      "reme": 2305,
      "ital": 2306,
      "ories": 2307,
      "Ġdinner": 2308,
      "Ġgrou": 2309,
      "Ġnor": 2310,
      "ushing": 2311,
      "ict": 2312,
      "ĠPh": 2313,
      "Ġnote": 2314,
      "Ġwants": 2315,
      "Ġsubject": 2316,
      "Ġsimply": 2317,
      "bolt": 2318,
      "fast": 2319,
      "Ġtight": 2320,
      "Ġfield": 2321,
      "Ġmark": 2322,
      "Ġmerely": 2323,
      "ĠLuc": 2324,
      "Ġimmedi": 2325,
      "avor": 2326,
      "ĠSec": 2327,
      "Ġfilled": 2328,
      "Ġthroat": 2329,
      "ĠLucius": 2330,
      "cing": 2331,
      "du": 2332,
      "not": 2333,
      "yond": 2334,
      "eter": 2335,
      "Ġfrown": 2336,
      "Ġtea": 2337,
      "Ġlock": 2338,
      "Ġperfect": 2339,
      "Ġwondered": 2340,
      "rill": 2341,
      "amb": 2342,
      "pell": 2343,
      "ife": 2344,
      "Ġplan": 2345,
      "Ġgrow": 2346,
      "ĠGranger": 2347,
      "Ġlaughing": 2348,
      "Ġgasped": 2349,
      "aut": 2350,
      "ler": 2351,
      "Ġtra": 2352,
      "eth": 2353,
      "ĠSke": 2354,
      "geon": 2355,
      "Ġalive": 2356,
      "ept": 2357,
      "Ġslid": 2358,
      "Ġmyself": 2359,
      "Ġlove": 2360,
      "Ġcarefully": 2361,
      "Ġscreamed": 2362,
      "Ġguard": 2363,
      "Ġactually": 2364,
      "Ġghost": 2365,
      "iar": 2366,
      "wick": 2367,
      "Ġtip": 2368,
      "Ġavo": 2369,
      "Ġbath": 2370,
      "Ġmess": 2371,
      "Ġnarrow": 2372,
      "oming": 2373,
      "amber": 2374,
      "Ġshr": 2375,
      "Ġleapt": 2376,
      "Ġsmo": 2377,
      "ĠPotions": 2378,
      "Ġwalk": 2379,
      "Ġfamil": 2380,
      "phook": 2381,
      "Ġheadmaster": 2382,
      "ĠGriphook": 2383,
      "ne": 2384,
      "Ġfer": 2385,
      "Ġdad": 2386,
      "Ġaside": 2387,
      "ĠGet": 2388,
      "ĠFlit": 2389,
      "Ġchild": 2390,
      "Ġworry": 2391,
      "Ġord": 2392,
      "avender": 2393,
      "Ġhole": 2394,
      "Ġjoined": 2395,
      "Ġtremb": 2396,
      "Ġstarting": 2397,
      "Ġbroomstick": 2398,
      "Ġattemp": 2399,
      "Ġremembered": 2400,
      "ĠDefense": 2401,
      "aily": 2402,
      "Ġbound": 2403,
      "Ġdare": 2404,
      "ĠIm": 2405,
      "Ġsomebody": 2406,
      "Ġbecome": 2407,
      "ments": 2408,
      "Ġapparently": 2409,
      "Ġremained": 2410,
      "Ġneeded": 2411,
      "ungus": 2412,
      "Ġbreakfast": 2413,
      "ĠFlitwick": 2414,
      "aid": 2415,
      "bs": 2416,
      "Ġtall": 2417,
      "Ġbent": 2418,
      "Ġcre": 2419,
      "Ġdem": 2420,
      "Ġnice": 2421,
      "Ġshop": 2422,
      "Ġweren": 2423,
      "ĠLavender": 2424,
      "Ġabs": 2425,
      "Ġcho": 2426,
      "ĠEye": 2427,
      "Ġprom": 2428,
      "Ġadv": 2429,
      "Ġcatch": 2430,
      "ĠDiggory": 2431,
      "zen": 2432,
      "Ġterm": 2433,
      "Ġhuge": 2434,
      "Ġbeyond": 2435,
      "ĠTom": 2436,
      "ĠMo": 2437,
      "ĠMund": 2438,
      "ĠDis": 2439,
      "Ġann": 2440,
      "blet": 2441,
      "Ġsmiled": 2442,
      "aused": 2443,
      "Ġbottom": 2444,
      "Ġterrible": 2445,
      "Ġextreme": 2446,
      "ĠAgainst": 2447,
      "Ġtightly": 2448,
      "ones": 2449,
      "Ġtoday": 2450,
      "Ġpink": 2451,
      "ĠRem": 2452,
      "Ġdog": 2453,
      "Ġsomewhere": 2454,
      "Ġknees": 2455,
      "Ġfirm": 2456,
      "Ġstrong": 2457,
      "Ġdrink": 2458,
      "Ġteachers": 2459,
      "Ġdirection": 2460,
      "Ġpicture": 2461,
      "Ġeager": 2462,
      "ĠMaybe": 2463,
      "ĠMundungus": 2464,
      "LE": 2465,
      "joy": 2466,
      "Ġnone": 2467,
      "ays": 2468,
      "Ġallowed": 2469,
      "Ġview": 2470,
      "Ġpost": 2471,
      "Ġworking": 2472,
      "Ġsurprise": 2473,
      "Ġclimbed": 2474,
      "ĠSkeeter": 2475,
      "Ġwish": 2476,
      "Ġpaper": 2477,
      "Ġbellow": 2478,
      "Ġsear": 2479,
      "Ġcrack": 2480,
      "Ġoppos": 2481,
      "Ġaf": 2482,
      "imp": 2483,
      "ĠDaily": 2484,
      "Ġforget": 2485,
      "ammed": 2486,
      "Ġtwenty": 2487,
      "ĠScabb": 2488,
      "Ġsurprised": 2489,
      "Ġclutching": 2490,
      "Ġinformation": 2491,
      "ĠScabbers": 2492,
      "by": 2493,
      "vati": 2494,
      "Ġhol": 2495,
      "arl": 2496,
      "ashing": 2497,
      "ĠMiss": 2498,
      "ĠBuck": 2499,
      "Ġslipped": 2500,
      "Ġproper": 2501,
      "Ġboys": 2502,
      "Ġlessons": 2503,
      "Ġfaced": 2504,
      "Ġdecided": 2505,
      "Ġsharply": 2506,
      "ĠParvati": 2507,
      "Ġsense": 2508,
      "Ġdest": 2509,
      "Ġstaff": 2510,
      "ĠMum": 2511,
      "Ġuna": 2512,
      "urse": 2513,
      "agg": 2514,
      "Ġteeth": 2515,
      "Ġanymore": 2516,
      "itely": 2517,
      "Ġhasn": 2518,
      "Ġsurround": 2519,
      "Ġclassroom": 2520,
      "Ġforehead": 2521,
      "Ġforgotten": 2522,
      "Ġtail": 2523,
      "Ġitself": 2524,
      "ical": 2525,
      "ague": 2526,
      "Ġupstairs": 2527,
      "ĠYOU": 2528,
      "Ġliving": 2529,
      "raid": 2530,
      "Ġworried": 2531,
      "Ġseeing": 2532,
      "Ġhosp": 2533,
      "Ġattention": 2534,
      "Ġsnow": 2535,
      "beak": 2536,
      "Ġextra": 2537,
      "ĠKeep": 2538,
      "ĠBuckbeak": 2539,
      "Ġhospital": 2540,
      "Ġbang": 2541,
      "Ġdust": 2542,
      "Ġconvers": 2543,
      "eling": 2544,
      "Ġhappily": 2545,
      "Ġfollowing": 2546,
      "Ġminute": 2547,
      "Ġattempt": 2548,
      "ges": 2549,
      "zing": 2550,
      "inx": 2551,
      "asure": 2552,
      "Ġdun": 2553,
      "any": 2554,
      "Ġweak": 2555,
      "steps": 2556,
      "Ġcount": 2557,
      "Ġgazing": 2558,
      "Ġpiece": 2559,
      "Ġopposite": 2560,
      "Ġhiding": 2561,
      "Ġfain": 2562,
      "Ġfavor": 2563,
      "Ġcry": 2564,
      "Ġpan": 2565,
      "ĠWas": 2566,
      "ute": 2567,
      "ĠHere": 2568,
      "Ġdeal": 2569,
      "Ġconv": 2570,
      "Ġenjoy": 2571,
      "rows": 2572,
      "Ġspeaking": 2573,
      "Ġsecret": 2574,
      "Ġlisten": 2575,
      "Ġfinger": 2576,
      "ĠErn": 2577,
      "Ġdeterm": 2578,
      "Ġafraid": 2579,
      "ander": 2580,
      "ude": 2581,
      "Ġplaced": 2582,
      "Ġswung": 2583,
      "Ġdisg": 2584,
      "ĠQuir": 2585,
      "Ġcoun": 2586,
      "Ġpresent": 2587,
      "Ġmirror": 2588,
      "Ġextremely": 2589,
      "AT": 2590,
      "ton": 2591,
      "Ġtow": 2592,
      "Ġrepl": 2593,
      "Ġforce": 2594,
      "ĠLily": 2595,
      "Ġmoon": 2596,
      "Ġdiscus": 2597,
      "Ġpurple": 2598,
      "Ġsingle": 2599,
      "ĠQuirrell": 2600,
      "Ġpack": 2601,
      "gelin": 2602,
      "ĠNor": 2603,
      "elve": 2604,
      "Ġtrust": 2605,
      "Ġarg": 2606,
      "ĠNever": 2607,
      "Ġmeans": 2608,
      "Ġimpati": 2609,
      "ĠAngelin": 2610,
      "Ġappear": 2611,
      "Ġwondering": 2612,
      "Ġfuriously": 2613,
      "ĠAngelina": 2614,
      "ery": 2615,
      "atter": 2616,
      "its": 2617,
      "Ġmass": 2618,
      "Ġchange": 2619,
      "Ġbring": 2620,
      "Ġkeeping": 2621,
      "Ġpossess": 2622,
      "Ġimmediately": 2623,
      "Ġwarm": 2624,
      "Ġbre": 2625,
      "Ġfood": 2626,
      "Ġoh": 2627,
      "Ġhesit": 2628,
      "Ġdie": 2629,
      "ots": 2630,
      "Ġseven": 2631,
      "Ġnotice": 2632,
      "blem": 2633,
      "Ġwhatever": 2634,
      "Ġspir": 2635,
      "Ġvoices": 2636,
      "Ġgrinning": 2637,
      "Ġeyeb": 2638,
      "Ġdisappeared": 2639,
      "Ġdormitory": 2640,
      "hered": 2641,
      "inting": 2642,
      "Ġnast": 2643,
      "acing": 2644,
      "aded": 2645,
      "ĠPe": 2646,
      "tern": 2647,
      "Ġlibr": 2648,
      "arth": 2649,
      "Ġpol": 2650,
      "ĠBlud": 2651,
      "ĠSlytherins": 2652,
      "Ġfootsteps": 2653,
      "ĠFirebolt": 2654,
      "arled": 2655,
      "Ġble": 2656,
      "lliv": 2657,
      "Ġline": 2658,
      "Ġstep": 2659,
      "ĠOlliv": 2660,
      "ĠEven": 2661,
      "izing": 2662,
      "Ġpassage": 2663,
      "Ġwaited": 2664,
      "ĠNothing": 2665,
      "Ġpowerful": 2666,
      "Ġstrode": 2667,
      "ĠWizarding": 2668,
      "Ġfigure": 2669,
      "Ġcirc": 2670,
      "Ġhastily": 2671,
      "kin": 2672,
      "ker": 2673,
      "rtle": 2674,
      "tig": 2675,
      "Ġpri": 2676,
      "Ġinn": 2677,
      "leep": 2678,
      "Ġeat": 2679,
      "Ġrid": 2680,
      "Ġhanded": 2681,
      "Ġenc": 2682,
      "Ġjoin": 2683,
      "ĠMyrtle": 2684,
      "Ġmarble": 2685,
      "Ġweeks": 2686,
      "Ġhomework": 2687,
      "Ġknocked": 2688,
      "Ġpractice": 2689,
      "Ġdoubt": 2690,
      "Ġbellowed": 2691,
      "bl": 2692,
      "wh": 2693,
      "Ġfixed": 2694,
      "llent": 2695,
      "aces": 2696,
      "Ġsend": 2697,
      "Ġje": 2698,
      "Ġscared": 2699,
      "ogra": 2700,
      "unno": 2701,
      "Ġterrified": 2702,
      "Ġbedroom": 2703,
      "ĠPettig": 2704,
      "Ġlanded": 2705,
      "Ġtouch": 2706,
      "ĠAppar": 2707,
      "ĠPettigrew": 2708,
      "ces": 2709,
      "clock": 2710,
      "ole": 2711,
      "ury": 2712,
      "Ġsick": 2713,
      "itched": 2714,
      "Ġpage": 2715,
      "cellent": 2716,
      "ĠNick": 2717,
      "Ġsol": 2718,
      "orting": 2719,
      "Ġrock": 2720,
      "Ġdep": 2721,
      "Ġremind": 2722,
      "Ġattacked": 2723,
      "Ġreading": 2724,
      "Ġusually": 2725,
      "Ġholid": 2726,
      "ĠOllivander": 2727,
      "ived": 2728,
      "tled": 2729,
      "uing": 2730,
      "Ġworth": 2731,
      "Ġborn": 2732,
      "Ġcauldron": 2733,
      "Ġpath": 2734,
      "Ġele": 2735,
      "ĠTwo": 2736,
      "Ġur": 2737,
      "ads": 2738,
      "Ġlive": 2739,
      "Ġrolled": 2740,
      "Ġtwelve": 2741,
      "Ġaftern": 2742,
      "Ġnearer": 2743,
      "Ġlibrary": 2744,
      "cause": 2745,
      "inct": 2746,
      "Ġdress": 2747,
      "Ġgrabb": 2748,
      "Ġbeard": 2749,
      "ĠSomet": 2750,
      "Ġsevent": 2751,
      "aked": 2752,
      "ables": 2753,
      "Ġprefect": 2754,
      "Ġlocket": 2755,
      "Ġproblem": 2756,
      "ĠBecause": 2757,
      "Ġmeeting": 2758,
      "ournament": 2759,
      "af": 2760,
      "ov": 2761,
      "Ġmag": 2762,
      "Ġgard": 2763,
      "Ġearth": 2764,
      "ĠTower": 2765,
      "rib": 2766,
      "ĠCurse": 2767,
      "oney": 2768,
      "Ġcannot": 2769,
      "ĠWeasleys": 2770,
      "Ġglad": 2771,
      "Ġgrim": 2772,
      "inned": 2773,
      "Ġplaying": 2774,
      "Ġnervously": 2775,
      "Ġfirmly": 2776,
      "ls": 2777,
      "ring": 2778,
      "ĠZ": 2779,
      "Ġtask": 2780,
      "Ġshowed": 2781,
      "Ġdelight": 2782,
      "Ġthinks": 2783,
      "Ġprophe": 2784,
      "Ġsne": 2785,
      "Ġsurf": 2786,
      "Ġskin": 2787,
      "Ġsusp": 2788,
      "Ġphot": 2789,
      "ĠPatron": 2790,
      "Ġparticularly": 2791,
      "Ġgroup": 2792,
      "Ġafternoon": 2793,
      "fer": 2794,
      "Ġspent": 2795,
      "ĠCharl": 2796,
      "ibly": 2797,
      "Ġsoftly": 2798,
      "ĠCharlie": 2799,
      "Ġhon": 2800,
      "arily": 2801,
      "atie": 2802,
      "ides": 2803,
      "eng": 2804,
      "omp": 2805,
      "ĠBur": 2806,
      "ĠKatie": 2807,
      "Ġglit": 2808,
      "Ġwaving": 2809,
      "Ġamong": 2810,
      "Ġowls": 2811,
      "Ġheavily": 2812,
      "Ġrecognized": 2813,
      "Ġnormal": 2814,
      "Ġbathroom": 2815,
      "ior": 2816,
      "Ġ1": 2817,
      "Ġtroll": 2818,
      "ĠHave": 2819,
      "Ġtom": 2820,
      "ested": 2821,
      "Ġgro": 2822,
      "Ġreve": 2823,
      "ugged": 2824,
      "Ġhalfway": 2825,
      "ĠMadame": 2826,
      "Ġdefin": 2827,
      "Ġfallen": 2828,
      "Ġdiary": 2829,
      "Ġexcit": 2830,
      "Ġcopy": 2831,
      "OO": 2832,
      "ual": 2833,
      "Ġtrave": 2834,
      "arc": 2835,
      "Ġfist": 2836,
      "Ġmap": 2837,
      "Ġperm": 2838,
      "ĠMaster": 2839,
      "Ġasleep": 2840,
      "Ġworked": 2841,
      "Ġsideways": 2842,
      "Ġcorridors": 2843,
      "Ġspells": 2844,
      "ĠPrime": 2845,
      "Ġhanging": 2846,
      "Ġdeserted": 2847,
      "Ġconversation": 2848,
      "Ġprophecy": 2849,
      "ian": 2850,
      "oen": 2851,
      "Ġgen": 2852,
      "otts": 2853,
      "irth": 2854,
      "ĠFang": 2855,
      "ĠList": 2856,
      "Ġcurse": 2857,
      "ĠEveryone": 2858,
      "Ġshadow": 2859,
      "Ġsuspic": 2860,
      "oenix": 2861,
      "Ġcage": 2862,
      "Ġdra": 2863,
      "Ġpow": 2864,
      "lease": 2865,
      "Ġemb": 2866,
      "ĠLong": 2867,
      "Ġchanged": 2868,
      "Ġbrain": 2869,
      "Ġshoulders": 2870,
      "Ġfalling": 2871,
      "Ġmaybe": 2872,
      "Ġfighting": 2873,
      "Ġapproached": 2874,
      "Ġdetermined": 2875,
      "come": 2876,
      "lic": 2877,
      "tic": 2878,
      "Ġsy": 2879,
      "eding": 2880,
      "Ġdri": 2881,
      "otion": 2882,
      "irty": 2883,
      "entr": 2884,
      "Ġalarm": 2885,
      "Ġgrass": 2886,
      "ĠOnce": 2887,
      "Ġclosely": 2888,
      "Ġbrightly": 2889,
      "Ġexplain": 2890,
      "Ġcrossed": 2891,
      "Ġthrowing": 2892,
      "Ġtrembling": 2893,
      "ograph": 2894,
      "ĠPatronus": 2895,
      "OT": 2896,
      "back": 2897,
      "een": 2898,
      "ĠX": 2899,
      "Ġess": 2900,
      "Ġgrave": 2901,
      "Ġbeaming": 2902,
      "Ġstat": 2903,
      "ĠMax": 2904,
      "ĠDep": 2905,
      "Ġrece": 2906,
      "Ġjump": 2907,
      "ĠOkay": 2908,
      "Ġleaned": 2909,
      "ieve": 2910,
      "Ġtrick": 2911,
      "Ġhurrying": 2912,
      "Ġcurtain": 2913,
      "Ġmissed": 2914,
      "Ġcertainly": 2915,
      "Ġfrowning": 2916,
      "Ġnasty": 2917,
      "Ġgarden": 2918,
      "Ġsurface": 2919,
      "ĠMaxime": 2920,
      "EN": 2921,
      "fig": 2922,
      "Ġsank": 2923,
      "Ġcand": 2924,
      "Ġbew": 2925,
      "ooped": 2926,
      "Ġunless": 2927,
      "Ġheaded": 2928,
      "ĠNearly": 2929,
      "Ġsqueak": 2930,
      "Ġscarlet": 2931,
      "Ġhoping": 2932,
      "Ġstretched": 2933,
      "bot": 2934,
      "co": 2935,
      "gin": 2936,
      "set": 2937,
      "Ġaff": 2938,
      "rets": 2939,
      "Ġbirth": 2940,
      "Ġfit": 2941,
      "idly": 2942,
      "Ġyer": 2943,
      "ĠWand": 2944,
      "aling": 2945,
      "Ġvill": 2946,
      "ction": 2947,
      "Ġusing": 2948,
      "ĠThree": 2949,
      "Ġcheer": 2950,
      "Ġanger": 2951,
      "rilli": 2952,
      "Ġeagerly": 2953,
      "ĠListen": 2954,
      "Ġwin": 2955,
      "Ġfool": 2956,
      "Ġfier": 2957,
      "Ġinvis": 2958,
      "ceed": 2959,
      "Ġrow": 2960,
      "Ġspark": 2961,
      "Ġsplit": 2962,
      "oph": 2963,
      "Ġcloud": 2964,
      "Ġcompl": 2965,
      "Ġimm": 2966,
      "Ġputting": 2967,
      "ĠHowever": 2968,
      "Ġmonths": 2969,
      "ĠTrans": 2970,
      "ĠErnie": 2971,
      "Ġeyebrows": 2972,
      "Ġtomorrow": 2973,
      "Ġtables": 2974,
      "attered": 2975,
      "Ġoften": 2976,
      "Ġpub": 2977,
      "Ġink": 2978,
      "Ġones": 2979,
      "umin": 2980,
      "illy": 2981,
      "ĠCorn": 2982,
      "anded": 2983,
      "Ġsuff": 2984,
      "bbed": 2985,
      "Ġcomm": 2986,
      "Ġseems": 2987,
      "Ġsnarled": 2988,
      "ĠPerhaps": 2989,
      "Ġfacing": 2990,
      "Ġmurm": 2991,
      "Ġsharp": 2992,
      "Ġperfectly": 2993,
      "oss": 2994,
      "under": 2995,
      "zed": 2996,
      "Ġsoul": 2997,
      "Ġcro": 2998,
      "asant": 2999,
      "Ġdread": 3000,
      "Ġlunch": 3001,
      "Ġgame": 3002,
      "Ġliked": 3003,
      "Ġpret": 3004,
      "Ġwaved": 3005,
      "Ġrealize": 3006,
      "Ġdistant": 3007,
      "Ġbusiness": 3008,
      "Ġnervous": 3009,
      "Ġcenta": 3010,
      "Ġeffort": 3011,
      "Ġpressed": 3012,
      "Ġemerged": 3013,
      "Ġconcentr": 3014,
      "AN": 3015,
      "llo": 3016,
      "Ġinj": 3017,
      "Ġsave": 3018,
      "icing": 3019,
      "ĠDel": 3020,
      "Ġrain": 3021,
      "ĠOF": 3022,
      "Ġyellow": 3023,
      "ĠKings": 3024,
      "Ġevid": 3025,
      "Ġnearest": 3026,
      "ĠAnyway": 3027,
      "Ġimpatiently": 3028,
      "ĠDepartment": 3029,
      "ĠKingsley": 3030,
      "how": 3031,
      "Ġmen": 3032,
      "Ġearly": 3033,
      "ĠMe": 3034,
      "ĠGrey": 3035,
      "ĠLee": 3036,
      "ĠLove": 3037,
      "uding": 3038,
      "anting": 3039,
      "Ġpoor": 3040,
      "Ġune": 3041,
      "Ġshouldn": 3042,
      "Ġperform": 3043,
      "ĠOnly": 3044,
      "Ġinches": 3045,
      "Ġexplo": 3046,
      "Ġslee": 3047,
      "ances": 3048,
      "Ġbusy": 3049,
      "Ġspotted": 3050,
      "Ġfifty": 3051,
      "Ġzoom": 3052,
      "Ġechoed": 3053,
      "Ġunable": 3054,
      "Ġinvisible": 3055,
      "Ġpretty": 3056,
      "inary": 3057,
      "Ġhide": 3058,
      "Ġhig": 3059,
      "ott": 3060,
      "vel": 3061,
      "ĠSpell": 3062,
      "Ġwitches": 3063,
      "Ġshowing": 3064,
      "Ġneither": 3065,
      "Ġjer": 3066,
      "ants": 3067,
      "though": 3068,
      "Ġspect": 3069,
      "Ġcontrol": 3070,
      "Ġmuttering": 3071,
      "Ġquestions": 3072,
      "Ġcupboard": 3073,
      "Ġfrightened": 3074,
      "Ġobviously": 3075,
      "ĠLongbot": 3076,
      "ĠXen": 3077,
      "ĠLongbottom": 3078,
      "cious": 3079,
      "ected": 3080,
      "nce": 3081,
      "Ġfun": 3082,
      "isf": 3083,
      "Ġnine": 3084,
      "ĠSm": 3085,
      "ĠSpr": 3086,
      "Ġasking": 3087,
      "alle": 3088,
      "ilius": 3089,
      "Ġgoblet": 3090,
      "Ġlips": 3091,
      "Ġprep": 3092,
      "Ġwhisper": 3093,
      "Ġadmit": 3094,
      "Ġscreaming": 3095,
      "Ġthrown": 3096,
      "Ġirrit": 3097,
      "Ġhuman": 3098,
      "Ġgrowled": 3099,
      "Ġhesitated": 3100,
      "blood": 3101,
      "Ġsens": 3102,
      "Ġward": 3103,
      "ĠHo": 3104,
      "Ġmus": 3105,
      "ĠAur": 3106,
      "Ġagre": 3107,
      "ongue": 3108,
      "Ġthoughts": 3109,
      "Ġappre": 3110,
      "Ġpassing": 3111,
      "Ġdrawing": 3112,
      "Ġfil": 3113,
      "Ġhissed": 3114,
      "ĠMer": 3115,
      "Ġund": 3116,
      "ĠBy": 3117,
      "ified": 3118,
      "cks": 3119,
      "ighed": 3120,
      "Ġcharm": 3121,
      "Ġflames": 3122,
      "Ġench": 3123,
      "Ġappl": 3124,
      "ĠStone": 3125,
      "Ġguess": 3126,
      "Ġshrieked": 3127,
      "Ġposition": 3128,
      "ony": 3129,
      "Ġthreat": 3130,
      "Ġpay": 3131,
      "velo": 3132,
      "Ġstuck": 3133,
      "ĠMark": 3134,
      "roy": 3135,
      "ĠWor": 3136,
      "ĠWill": 3137,
      "urb": 3138,
      "ĠGalle": 3139,
      "Ġclot": 3140,
      "Ġtwice": 3141,
      "Ġsmell": 3142,
      "unned": 3143,
      "Ġfault": 3144,
      "Ġoccas": 3145,
      "Ġcolor": 3146,
      "Ġgrabbed": 3147,
      "ĠSomething": 3148,
      "ophilius": 3149,
      "ĠXenophilius": 3150,
      "oken": 3151,
      "Ġgra": 3152,
      "rog": 3153,
      "Ġspread": 3154,
      "Ġslight": 3155,
      "ĠThank": 3156,
      "ĠThanks": 3157,
      "Ġgrowing": 3158,
      "ĠChamber": 3159,
      "ĠNobody": 3160,
      "Ġmoments": 3161,
      "apping": 3162,
      "ilda": 3163,
      "Ġsatisf": 3164,
      "Ġletters": 3165,
      "Ġprotect": 3166,
      "ĠCharms": 3167,
      "Ġwriting": 3168,
      "Ġeasy": 3169,
      "ias": 3170,
      "ĠGod": 3171,
      "Ġjinx": 3172,
      "quire": 3173,
      "Ġspl": 3174,
      "Ġplat": 3175,
      "Ġprev": 3176,
      "ucked": 3177,
      "Ġentire": 3178,
      "Ġhelped": 3179,
      "Ġelves": 3180,
      "Ġcarried": 3181,
      "Ġbadly": 3182,
      "Ġseats": 3183,
      "ĠHorcruxes": 3184,
      "ING": 3185,
      "Ġwooden": 3186,
      "ĠBludger": 3187,
      "Ġdefinitely": 3188,
      "Ġbirthday": 3189,
      "ĠTransfig": 3190,
      "ĠGreyback": 3191,
      "ĠSprout": 3192,
      "ST": 3193,
      "ses": 3194,
      "arg": 3195,
      "Ġcour": 3196,
      "Ġpacked": 3197,
      "ĠTri": 3198,
      "Ġreach": 3199,
      "ĠPo": 3200,
      "pected": 3201,
      "Ġupward": 3202,
      "Ġworst": 3203,
      "Ġcomfort": 3204,
      "thy": 3205,
      "Ġparty": 3206,
      "Ġcarri": 3207,
      "Ġunderstood": 3208,
      "Ġinterested": 3209,
      "Ġmidair": 3210,
      "Ġfamiliar": 3211,
      "uice": 3212,
      "val": 3213,
      "Ġwake": 3214,
      "Ġblock": 3215,
      "Ġlamp": 3216,
      "Ġpure": 3217,
      "Ġnames": 3218,
      "ĠAm": 3219,
      "ĠPlease": 3220,
      "Ġrising": 3221,
      "inked": 3222,
      "Ġnois": 3223,
      "ulus": 3224,
      "Ġteach": 3225,
      "Ġdownstairs": 3226,
      "Ġunple": 3227,
      "Ġthank": 3228,
      "Ġthanks": 3229,
      "Ġswept": 3230,
      "ĠQuaff": 3231,
      "Ġlifted": 3232,
      "Ġhighly": 3233,
      "Ġcompartment": 3234,
      "Ġdisappo": 3235,
      "Ġseriously": 3236,
      "Ġrefle": 3237,
      "Ġfresh": 3238,
      "Ġobjects": 3239,
      "Ġdungeon": 3240,
      "RE": 3241,
      "mm": 3242,
      "Ġtone": 3243,
      "ingotts": 3244,
      "Ġfat": 3245,
      "Ġcard": 3246,
      "Ġhearing": 3247,
      "Ġmer": 3248,
      "Ġpitch": 3249,
      "lder": 3250,
      "ĠSorry": 3251,
      "Ġwhist": 3252,
      "utter": 3253,
      "Ġshining": 3254,
      "Ġexper": 3255,
      "els": 3256,
      "ĠPotion": 3257,
      "Ġsnat": 3258,
      "Ġsounding": 3259,
      "Ġshouting": 3260,
      "ĠGringotts": 3261,
      "Ġcoldly": 3262,
      "racted": 3263,
      "Ġpatch": 3264,
      "rivet": 3265,
      "Ġleading": 3266,
      "Ġgleaming": 3267,
      "Ġgloom": 3268,
      "Ġannoy": 3269,
      "ding": 3270,
      "ium": 3271,
      "night": 3272,
      "Ġsize": 3273,
      "Ġbin": 3274,
      "Ġlur": 3275,
      "Ġpile": 3276,
      "Ġpause": 3277,
      "Ġbeat": 3278,
      "Ġbell": 3279,
      "ĠDrive": 3280,
      "ĠPrivet": 3281,
      "gered": 3282,
      "antic": 3283,
      "Ġplann": 3284,
      "Ġremain": 3285,
      "Ġbreathing": 3286,
      "Ġincl": 3287,
      "ĠReg": 3288,
      "Ġchampions": 3289,
      "Ġglittering": 3290,
      "Ġexcitement": 3291,
      "Ġvillage": 3292,
      "Ġplatform": 3293,
      "ĠQuaffle": 3294,
      "cess": 3295,
      "ik": 3296,
      "wizard": 3297,
      "Ġbird": 3298,
      "Ġbrilli": 3299,
      "itted": 3300,
      "Ġeh": 3301,
      "Ġstag": 3302,
      "ĠMor": 3303,
      "ĠTheir": 3304,
      "roud": 3305,
      "ouses": 3306,
      "ational": 3307,
      "olate": 3308,
      "Ġchee": 3309,
      "ĠStan": 3310,
      "Ġbitter": 3311,
      "Ġinstru": 3312,
      "Ġdementor": 3313,
      "Ġinterrup": 3314,
      "Ġcreatures": 3315,
      "Ġlucky": 3316,
      "Ġexcitedly": 3317,
      "ait": 3318,
      "den": 3319,
      "Ġage": 3320,
      "Ġsighed": 3321,
      "Ġcool": 3322,
      "Ġhalt": 3323,
      "Ġhaired": 3324,
      "ĠWould": 3325,
      "ĠAber": 3326,
      "Ġswall": 3327,
      "ineas": 3328,
      "dding": 3329,
      "Ġsounds": 3330,
      "Ġstudent": 3331,
      "Ġdetention": 3332,
      "Ġaware": 3333,
      "Ġfurious": 3334,
      "cial": 3335,
      "Ġshortly": 3336,
      "Ġmiser": 3337,
      "Ġburning": 3338,
      "ĠPhineas": 3339,
      "ĠMolly": 3340,
      "Ġproperly": 3341,
      "Ġphotograph": 3342,
      "aunt": 3343,
      "reg": 3344,
      "Ġdam": 3345,
      "Ġdunno": 3346,
      "Ġinf": 3347,
      "Ġeight": 3348,
      "ĠMost": 3349,
      "Ġrev": 3350,
      "urred": 3351,
      "Ġsoared": 3352,
      "eping": 3353,
      "Ġanybody": 3354,
      "Ġsomehow": 3355,
      "ausing": 3356,
      "Ġarmch": 3357,
      "Ġbelong": 3358,
      "Ġlouder": 3359,
      "forth": 3360,
      "Ġmurd": 3361,
      "Ġescape": 3362,
      "Ġeffect": 3363,
      "Ġwarning": 3364,
      "wise": 3365,
      "Ġhood": 3366,
      "Ġfold": 3367,
      "Ġpound": 3368,
      "Ġsaved": 3369,
      "Ġstri": 3370,
      "uration": 3371,
      "Ġkid": 3372,
      "ĠFat": 3373,
      "Ġfellow": 3374,
      "Ġspider": 3375,
      "Ġunf": 3376,
      "rief": 3377,
      "Ġcover": 3378,
      "Ġsurely": 3379,
      "Ġimpression": 3380,
      "Ġlift": 3381,
      "Ġfirepl": 3382,
      "Ġhorror": 3383,
      "Ġdeeply": 3384,
      "ĠHeadless": 3385,
      "ĠSomeone": 3386,
      "Ġconcern": 3387,
      "Ġlearned": 3388,
      "Ġsolid": 3389,
      "ues": 3390,
      "ency": 3391,
      "omfort": 3392,
      "ĠFin": 3393,
      "Ġrang": 3394,
      "Ġlived": 3395,
      "Ġsped": 3396,
      "Ġamaz": 3397,
      "ĠGryffindors": 3398,
      "Ġsque": 3399,
      "Ġcareful": 3400,
      "ivination": 3401,
      "Ġlowered": 3402,
      "Ġrelief": 3403,
      "ocolate": 3404,
      "Ġlanding": 3405,
      "Ġfavorite": 3406,
      "Ġholidays": 3407,
      "Ġspectac": 3408,
      "sc": 3409,
      "sion": 3410,
      "zy": 3411,
      "Ġtest": 3412,
      "Ġwings": 3413,
      "Ġbab": 3414,
      "riff": 3415,
      "Ġvi": 3416,
      "Ġknowing": 3417,
      "ugging": 3418,
      "Ġsurv": 3419,
      "Ġfamous": 3420,
      "Ġfurther": 3421,
      "Ġcalmly": 3422,
      "Ġavoid": 3423,
      "Ġsmooth": 3424,
      "Ġdestroy": 3425,
      "Ġdelighted": 3426,
      "ĠTransfiguration": 3427,
      "bers": 3428,
      "ivering": 3429,
      "Ġserv": 3430,
      "Ġwra": 3431,
      "ĠHalf": 3432,
      "oof": 3433,
      "agon": 3434,
      "key": 3435,
      "ĠBor": 3436,
      "ĠCon": 3437,
      "ĠCol": 3438,
      "ilt": 3439,
      "ĠLike": 3440,
      "ific": 3441,
      "Ġgoal": 3442,
      "ĠOut": 3443,
      "Ġabrup": 3444,
      "Ġconce": 3445,
      "elius": 3446,
      "ieved": 3447,
      "Ġsmoke": 3448,
      "Ġsilvery": 3449,
      "Ġfinal": 3450,
      "Ġresp": 3451,
      "Ġpersu": 3452,
      "Ġserious": 3453,
      "Ġcreature": 3454,
      "Ġgrip": 3455,
      "ĠDisapp": 3456,
      "ĠCornelius": 3457,
      "Ġhigher": 3458,
      "Ġclothes": 3459,
      "bidden": 3460,
      "gly": 3461,
      "ipping": 3462,
      "pose": 3463,
      "ĠHad": 3464,
      "attering": 3465,
      "Ġmoney": 3466,
      "Ġlawn": 3467,
      "Ġgigg": 3468,
      "Ġstick": 3469,
      "ĠDivination": 3470,
      "ĠCould": 3471,
      "Ġbutter": 3472,
      "ĠNarc": 3473,
      "ĠOg": 3474,
      "Ġanywhere": 3475,
      "Ġlikely": 3476,
      "Ġscene": 3477,
      "Ġgrand": 3478,
      "olved": 3479,
      "Ġeverybody": 3480,
      "Ġhappening": 3481,
      "action": 3482,
      "Ġhurry": 3483,
      "Ġjoke": 3484,
      "Ġexpelled": 3485,
      "Ġincred": 3486,
      "Ġdefe": 3487,
      "Ġwritten": 3488,
      "Ġanxiously": 3489,
      "Ġpanic": 3490,
      "while": 3491,
      "ĠAberforth": 3492,
      "ĠNarciss": 3493,
      "aving": 3494,
      "lcome": 3495,
      "tor": 3496,
      "ines": 3497,
      "Ġmum": 3498,
      "Ġmine": 3499,
      "Ġpill": 3500,
      "Ġproud": 3501,
      "irst": 3502,
      "ores": 3503,
      "aging": 3504,
      "ĠPens": 3505,
      "pper": 3506,
      "unted": 3507,
      "Ġwerewo": 3508,
      "Ġjourn": 3509,
      "Ġalthough": 3510,
      "Ġuncle": 3511,
      "Ġblond": 3512,
      "Ġslammed": 3513,
      "Ġsometimes": 3514,
      "Ġpeering": 3515,
      "Ġfourth": 3516,
      "Ġnearby": 3517,
      "Ġrubb": 3518,
      "Ġdesperately": 3519,
      "Ġbreaking": 3520,
      "ĠPeople": 3521,
      "Ġpriv": 3522,
      "ossible": 3523,
      "ĠNarcissa": 3524,
      "ĠPensieve": 3525,
      "Ġwerewolf": 3526,
      "Ġmood": 3527,
      "Ġgul": 3528,
      "Ġstream": 3529,
      "irt": 3530,
      "ĠAN": 3531,
      "ĠBath": 3532,
      "unity": 3533,
      "ils": 3534,
      "ĠLady": 3535,
      "Ġfeast": 3536,
      "Ġva": 3537,
      "ctions": 3538,
      "ogriff": 3539,
      "Ġtwins": 3540,
      "Ġflung": 3541,
      "Ġbrown": 3542,
      "Ġclean": 3543,
      "Ġcorre": 3544,
      "Ġdragged": 3545,
      "ĠDidn": 3546,
      "Ġdirectly": 3547,
      "Ġprotection": 3548,
      "Ġescaped": 3549,
      "ippogriff": 3550,
      "Ġagreed": 3551,
      "Ġoccasion": 3552,
      "ĠTriwizard": 3553,
      "good": 3554,
      "nze": 3555,
      "arr": 3556,
      "asted": 3557,
      "Ġpanted": 3558,
      "oting": 3559,
      "Ġstation": 3560,
      "Ġweight": 3561,
      "Ġugly": 3562,
      "urm": 3563,
      "Ġdozen": 3564,
      "ĠGraw": 3565,
      "ĠLud": 3566,
      "isting": 3567,
      "Ġloads": 3568,
      "Ġimpossible": 3569,
      "Ġcleared": 3570,
      "osen": 3571,
      "overed": 3572,
      "Ġbelieved": 3573,
      "Ġdistance": 3574,
      "Ġmembers": 3575,
      "cuse": 3576,
      "Ġmovement": 3577,
      "Ġmistake": 3578,
      "Ġdouble": 3579,
      "ounced": 3580,
      "Ġmissing": 3581,
      "Ġscrat": 3582,
      "Ġsuggested": 3583,
      "Ġinnoc": 3584,
      "Ġfierce": 3585,
      "ĠDisappar": 3586,
      "ĠGrawp": 3587,
      "cto": 3588,
      "Ġben": 3589,
      "oose": 3590,
      "Ġant": 3591,
      "amm": 3592,
      "ĠBr": 3593,
      "Ġring": 3594,
      "umbling": 3595,
      "Ġblind": 3596,
      "Ġbrand": 3597,
      "Ġopening": 3598,
      "Ġsquare": 3599,
      "Ġboard": 3600,
      "ĠPrince": 3601,
      "ĠFirenze": 3602,
      "Ġchildren": 3603,
      "Ġgener": 3604,
      "ĠLovegood": 3605,
      "ĠBorgin": 3606,
      "eled": 3607,
      "Ġtreat": 3608,
      "Ġaim": 3609,
      "Ġfury": 3610,
      "Ġpou": 3611,
      "Ġsad": 3612,
      "oted": 3613,
      "uttered": 3614,
      "ĠRoom": 3615,
      "ember": 3616,
      "Ġlie": 3617,
      "Ġpoison": 3618,
      "Ġyell": 3619,
      "Ġheading": 3620,
      "bbly": 3621,
      "Ġglance": 3622,
      "ĠBefore": 3623,
      "ertainly": 3624,
      "Ġgoblins": 3625,
      "Ġattempted": 3626,
      "ĠKeeper": 3627,
      "ĠColin": 3628,
      "Ġjourney": 3629,
      "ĠBathilda": 3630,
      "ĠLudo": 3631,
      "LL": 3632,
      "RY": 3633,
      "father": 3634,
      "Ġwished": 3635,
      "ature": 3636,
      "Ġcas": 3637,
      "ĠMud": 3638,
      "ĠMarge": 3639,
      "ĠCreat": 3640,
      "Ġexch": 3641,
      "estly": 3642,
      "Ġplain": 3643,
      "Ġeverywhere": 3644,
      "Ġremo": 3645,
      "ĠStill": 3646,
      "Ġharder": 3647,
      "Ġraising": 3648,
      "Ġindign": 3649,
      "Ġaccident": 3650,
      "Ġuncomfort": 3651,
      "Ġexplained": 3652,
      "Ġtouched": 3653,
      "Ġlocked": 3654,
      "Ġcurtains": 3655,
      "ĠOgden": 3656,
      "aved": 3657,
      "tling": 3658,
      "Ġhippogriff": 3659,
      "itting": 3660,
      "Ġdim": 3661,
      "Ġpaused": 3662,
      "Ġstir": 3663,
      "urity": 3664,
      "rier": 3665,
      "unks": 3666,
      "Ġrage": 3667,
      "iles": 3668,
      "ĠLond": 3669,
      "Ġfee": 3670,
      "Ġchairs": 3671,
      "ĠEn": 3672,
      "elw": 3673,
      "Ġbye": 3674,
      "angled": 3675,
      "Ġtrack": 3676,
      "ĠYeh": 3677,
      "Ġfinish": 3678,
      "ĠAlley": 3679,
      "Ġconfused": 3680,
      "Ġhundreds": 3681,
      "Ġhoped": 3682,
      "ĠFrom": 3683,
      "Ġanxious": 3684,
      "Ġbasin": 3685,
      "Ġprevious": 3686,
      "ĠMudblood": 3687,
      "ĠCreatures": 3688,
      "ĠLondon": 3689,
      "VE": 3690,
      "aud": 3691,
      "hus": 3692,
      "lum": 3693,
      "zz": 3694,
      "oned": 3695,
      "Ġfair": 3696,
      "Ġmain": 3697,
      "Ġtele": 3698,
      "Ġglancing": 3699,
      "Ġflash": 3700,
      "uffy": 3701,
      "Ġsecurity": 3702,
      "Ġcontact": 3703,
      "ĠMcL": 3704,
      "Ġsquee": 3705,
      "Ġdrop": 3706,
      "Ġmarched": 3707,
      "Ġawake": 3708,
      "Ġdived": 3709,
      "Ġtriump": 3710,
      "Ġimagine": 3711,
      "ĠFrank": 3712,
      "Ġstruggling": 3713,
      "Ġdemanded": 3714,
      "Ġconvin": 3715,
      "Ġcounter": 3716,
      "ĠWorld": 3717,
      "ĠGalleons": 3718,
      "gar": 3719,
      "iry": 3720,
      "mer": 3721,
      "ner": 3722,
      "Ġwave": 3723,
      "Ġmount": 3724,
      "Ġpen": 3725,
      "ety": 3726,
      "agged": 3727,
      "ĠFaw": 3728,
      "Ġfeather": 3729,
      "Ġvague": 3730,
      "Ġexh": 3731,
      "ules": 3732,
      "Ġpop": 3733,
      "Ġspace": 3734,
      "Ġorder": 3735,
      "anging": 3736,
      "Ġwrite": 3737,
      "Ġsettled": 3738,
      "ĠGrind": 3739,
      "Ġbroad": 3740,
      "Ġgaze": 3741,
      "Ġinteresting": 3742,
      "Ġchecking": 3743,
      "Ġshocked": 3744,
      "Ġshadows": 3745,
      "Ġscramb": 3746,
      "ĠImper": 3747,
      "aggen": 3748,
      "ĠMcLaggen": 3749,
      "aun": 3750,
      "Ġtap": 3751,
      "Ġsour": 3752,
      "Ġbother": 3753,
      "Ġtoad": 3754,
      "llus": 3755,
      "Ġmakes": 3756,
      "Ġlad": 3757,
      "Ġlower": 3758,
      "using": 3759,
      "usion": 3760,
      "vey": 3761,
      "ĠSorting": 3762,
      "ading": 3763,
      "ayed": 3764,
      "ĠFe": 3765,
      "Ġtherefore": 3766,
      "imey": 3767,
      "aping": 3768,
      "Ġsmir": 3769,
      "Ġprec": 3770,
      "Ġkeen": 3771,
      "ĠHallows": 3772,
      "Ġvisible": 3773,
      "Ġripped": 3774,
      "Ġleaves": 3775,
      "Ġbuild": 3776,
      "Ġechoing": 3777,
      "Ġchoice": 3778,
      "Ġfaint": 3779,
      "Ġmurmured": 3780,
      "ĠGodric": 3781,
      "Ġswallowed": 3782,
      "Ġfireplace": 3783,
      "Ġbutterbe": 3784,
      "fin": 3785,
      "Ġpin": 3786,
      "Ġpanting": 3787,
      "ĠSl": 3788,
      "ĠMust": 3789,
      "ĠDurm": 3790,
      "Ġshudd": 3791,
      "ĠGot": 3792,
      "iful": 3793,
      "Ġlevel": 3794,
      "Ġeyed": 3795,
      "Ġhandle": 3796,
      "bbled": 3797,
      "Ġtwisted": 3798,
      "Ġdoorway": 3799,
      "Ġspeed": 3800,
      "Ġnewsp": 3801,
      "Ġuseful": 3802,
      "Ġdragons": 3803,
      "Ġexpecting": 3804,
      "Ġburned": 3805,
      "strang": 3806,
      "Ġsuggest": 3807,
      "Ġreceived": 3808,
      "Ġarmchair": 3809,
      "ĠDurmstrang": 3810,
      "bat": 3811,
      "ded": 3812,
      "par": 3813,
      "Ġtired": 3814,
      "Ġwet": 3815,
      "inger": 3816,
      "Ġcrou": 3817,
      "iders": 3818,
      "Ġdu": 3819,
      "Ġdressed": 3820,
      "Ġinch": 3821,
      "Ġstrid": 3822,
      "Ġnotes": 3823,
      "ĠBoth": 3824,
      "une": 3825,
      "Ġbacked": 3826,
      "Ġleaning": 3827,
      "Ġexcellent": 3828,
      "Ġnodding": 3829,
      "Ġdev": 3830,
      "Ġunw": 3831,
      "estr": 3832,
      "Ġgets": 3833,
      "Ġgrinned": 3834,
      "olute": 3835,
      "Ġkey": 3836,
      "Ġdesp": 3837,
      "Ġlights": 3838,
      "Ġwhisp": 3839,
      "Ġgazed": 3840,
      "Ġfailed": 3841,
      "Ġeasily": 3842,
      "Ġcolored": 3843,
      "Ġignored": 3844,
      "Ġattempting": 3845,
      "Ġcountry": 3846,
      "Ġappearance": 3847,
      "Ġmagn": 3848,
      "ĠBurrow": 3849,
      "Ġstatue": 3850,
      "Ġunpleasant": 3851,
      "Ġbaby": 3852,
      "Ġtriumph": 3853,
      "aj": 3854,
      "tles": 3855,
      "Ġrough": 3856,
      "Ġsway": 3857,
      "Ġwren": 3858,
      "arters": 3859,
      "ĠHist": 3860,
      "Ġfart": 3861,
      "Ġcrying": 3862,
      "Ġcaused": 3863,
      "ache": 3864,
      "usted": 3865,
      "ĠTell": 3866,
      "ĠST": 3867,
      "ĠSqu": 3868,
      "ĠSatur": 3869,
      "ĠWH": 3870,
      "Ġreapp": 3871,
      "Ġkicked": 3872,
      "Ġteaching": 3873,
      "Ġyours": 3874,
      "Ġunus": 3875,
      "Ġplate": 3876,
      "Ġenvelo": 3877,
      "Ġprefer": 3878,
      "Ġstruck": 3879,
      "Ġsneak": 3880,
      "Ġclasses": 3881,
      "Ġbrilliant": 3882,
      "ĠFawkes": 3883,
      "ĠSaturday": 3884,
      "ige": 3885,
      "sand": 3886,
      "ule": 3887,
      "Ġslo": 3888,
      "Ġwife": 3889,
      "Ġbul": 3890,
      "Ġbrave": 3891,
      "Ġlim": 3892,
      "Ġleng": 3893,
      "Ġthunder": 3894,
      "Ġgest": 3895,
      "Ġbeaut": 3896,
      "ĠTw": 3897,
      "uri": 3898,
      "ĠAcc": 3899,
      "stal": 3900,
      "ĠPig": 3901,
      "illing": 3902,
      "Ġjud": 3903,
      "logy": 3904,
      "Ġthousand": 3905,
      "ops": 3906,
      "Ġslip": 3907,
      "gged": 3908,
      "Ġmuff": 3909,
      "Ġdesce": 3910,
      "Ġenthus": 3911,
      "Ġhandsome": 3912,
      "Ġdistinct": 3913,
      "Ġsweat": 3914,
      "Ġexamining": 3915,
      "Ġaccomp": 3916,
      "Ġtort": 3917,
      "Ġpretending": 3918,
      "Ġpunish": 3919,
      "quirement": 3920,
      "ĠMorfin": 3921,
      "elwald": 3922,
      "ĠGrindelwald": 3923,
      "ĠHistory": 3924,
      "Ġreappe": 3925,
      "ED": 3926,
      "ES": 3927,
      "ech": 3928,
      "word": 3929,
      "ities": 3930,
      "Ġdirty": 3931,
      "Ġpick": 3932,
      "Ġpump": 3933,
      "Ġpushing": 3934,
      "Ġstorm": 3935,
      "ĠSp": 3936,
      "uries": 3937,
      "acket": 3938,
      "ĠBul": 3939,
      "Ġshif": 3940,
      "Ġkiss": 3941,
      "Ġknife": 3942,
      "cked": 3943,
      "Ġlives": 3944,
      "Ġval": 3945,
      "Ġexist": 3946,
      "ults": 3947,
      "Ġchar": 3948,
      "Ġplaces": 3949,
      "Ġsmashed": 3950,
      "Ġpeered": 3951,
      "Ġwanting": 3952,
      "Ġstands": 3953,
      "Ġcalling": 3954,
      "Ġcontinue": 3955,
      "ĠRequirement": 3956,
      "Ġbuy": 3957,
      "Ġfigures": 3958,
      "Ġtemper": 3959,
      "Ġcrystal": 3960,
      "Ġessay": 3961,
      "Ġabruptly": 3962,
      "io": 3963,
      "ris": 3964,
      "Ġtournament": 3965,
      "Ġaunt": 3966,
      "Ġbought": 3967,
      "Ġtoile": 3968,
      "Ġdying": 3969,
      "omed": 3970,
      "Ġstad": 3971,
      "ĠDi": 3972,
      "ĠCare": 3973,
      "ĠNige": 3974,
      "Ġsuit": 3975,
      "angling": 3976,
      "Ġwrote": 3977,
      "Ġcurled": 3978,
      "iping": 3979,
      "Ġdifficul": 3980,
      "Ġdecide": 3981,
      "ĠSeeker": 3982,
      "Ġdesperate": 3983,
      "Ġfilthy": 3984,
      "Ġinstructions": 3985,
      "Ġviol": 3986,
      "Ġremoved": 3987,
      "Ġstadium": 3988,
      "ĠNigellus": 3989,
      "Ġdifficulty": 3990,
      "RI": 3991,
      "bow": 3992,
      "ob": 3993,
      "sure": 3994,
      "Ġtied": 3995,
      "Ġcoo": 3996,
      "orough": 3997,
      "Ġdrif": 3998,
      "Ġthorough": 3999,
      "Ġgn": 4000,
      "Ġstare": 4001,
      "icorn": 4002,
      "ĠMac": 4003,
      "ĠPans": 4004,
      "ĠHello": 4005,
      "umed": 4006,
      "aker": 4007,
      "Ġsocks": 4008,
      "ĠOcc": 4009,
      "Ġdeli": 4010,
      "ĠElder": 4011,
      "eless": 4012,
      "ĠVik": 4013,
      "Ġglaring": 4014,
      "Ġglimp": 4015,
      "Ġfinding": 4016,
      "Ġhelping": 4017,
      "ĠGrimm": 4018,
      "Ġindic": 4019,
      "Ġpossibly": 4020,
      "fortun": 4021,
      "Ġcompany": 4022,
      "Ġdifference": 4023,
      "Ġillumin": 4024,
      "ĠPlace": 4025,
      "Ġwildly": 4026,
      "Ġorders": 4027,
      "Ġtower": 4028,
      "Ġeleven": 4029,
      "Ġurg": 4030,
      "Ġsqueaked": 4031,
      "Ġinnocent": 4032,
      "Ġbutterbeer": 4033,
      "ĠPansy": 4034,
      "ĠGrimmauld": 4035,
      "cher": 4036,
      "Ġdull": 4037,
      "Ġdancing": 4038,
      "Ġlap": 4039,
      "Ġgig": 4040,
      "Ġgrew": 4041,
      "Ġgently": 4042,
      "Ġyard": 4043,
      "Ġyawn": 4044,
      "Ġeating": 4045,
      "Ġearn": 4046,
      "acour": 4047,
      "Ġstiff": 4048,
      "Ġstunned": 4049,
      "Ġaston": 4050,
      "Ġsepar": 4051,
      "ĠFel": 4052,
      "Ġrust": 4053,
      "Ġjus": 4054,
      "Ġroar": 4055,
      "Ġroll": 4056,
      "Ġrolling": 4057,
      "Ġoverhead": 4058,
      "Ġconj": 4059,
      "Ġconst": 4060,
      "Ġscree": 4061,
      "Ġglow": 4062,
      "tend": 4063,
      "Ġcontr": 4064,
      "Ġfloating": 4065,
      "ĠStand": 4066,
      "Ġclearing": 4067,
      "Ġmurder": 4068,
      "Ġdreams": 4069,
      "Ġclutched": 4070,
      "Ġphoenix": 4071,
      "Ġmidnight": 4072,
      "Ġchampion": 4073,
      "Ġfrozen": 4074,
      "ĠRemus": 4075,
      "ĠNorris": 4076,
      "ĠDelacour": 4077,
      "Ġcarriage": 4078,
      "Ġwhistle": 4079,
      "Ġexperi": 4080,
      "Ġrubbish": 4081,
      "Ġstriding": 4082,
      "ĠViktor": 4083,
      "Ġgigantic": 4084,
      "EA": 4085,
      "kward": 4086,
      "Ġtaught": 4087,
      "Ġwi": 4088,
      "ert": 4089,
      "arse": 4090,
      "Ġbust": 4091,
      "Ġbald": 4092,
      "ĠHi": 4093,
      "ittle": 4094,
      "Ġstars": 4095,
      "icy": 4096,
      "Ġweird": 4097,
      "Ġrese": 4098,
      "ĠRos": 4099,
      "Ġanim": 4100,
      "ĠBroom": 4101,
      "Ġupset": 4102,
      "ĠKing": 4103,
      "Ġgrin": 4104,
      "Ġeng": 4105,
      "Ġprevent": 4106,
      "sidered": 4107,
      "Ġlose": 4108,
      "Ġcrash": 4109,
      "Ġstudy": 4110,
      "Ġhorse": 4111,
      "Ġadm": 4112,
      "Ġsweet": 4113,
      "Ġawkward": 4114,
      "cient": 4115,
      "Ġstaying": 4116,
      "ĠReally": 4117,
      "Ġsimple": 4118,
      "Ġoddly": 4119,
      "Ġsleeping": 4120,
      "Ġsprinted": 4121,
      "Ġcircle": 4122,
      "Ġbattle": 4123,
      "Ġmentioned": 4124,
      "Ġdiscovered": 4125,
      "Ġtransform": 4126,
      "Ġwonderful": 4127,
      "ĠSecrets": 4128,
      "Ġsurrounded": 4129,
      "Ġdrawn": 4130,
      "Ġvault": 4131,
      "Ġtunn": 4132,
      "Ġtongue": 4133,
      "Ġblo": 4134,
      "Ġbog": 4135,
      "Ġbod": 4136,
      "Ġfully": 4137,
      "asy": 4138,
      "Ġmotion": 4139,
      "Ġlaid": 4140,
      "ĠTake": 4141,
      "ution": 4142,
      "rian": 4143,
      "ooked": 4144,
      "Ġsending": 4145,
      "ĠGaunt": 4146,
      "Ġjet": 4147,
      "Ġvar": 4148,
      "arty": 4149,
      "Ġages": 4150,
      "Ġconsidered": 4151,
      "Ġmyster": 4152,
      "aux": 4153,
      "Ġflick": 4154,
      "Ġbecoming": 4155,
      "Ġlosing": 4156,
      "aws": 4157,
      "Ġbreathed": 4158,
      "Ġgreet": 4159,
      "Ġbadge": 4160,
      "Ġanswered": 4161,
      "Ġstruggled": 4162,
      "Ġmessage": 4163,
      "Ġcrept": 4164,
      "Ġsurrounding": 4165,
      "Ġreminded": 4166,
      "ceeded": 4167,
      "Ġzoomed": 4168,
      "Ġplanning": 4169,
      "Ġprivate": 4170,
      "Ġconvinced": 4171,
      "ĠDiagon": 4172,
      "line": 4173,
      "son": 4174,
      "Ġwis": 4175,
      "Ġwound": 4176,
      "Ġbowed": 4177,
      "Ġfought": 4178,
      "Ġcamp": 4179,
      "Ġdue": 4180,
      "lebr": 4181,
      "ĠSure": 4182,
      "Ġwelcome": 4183,
      "stri": 4184,
      "ĠYax": 4185,
      "Ġneat": 4186,
      "Ġrum": 4187,
      "Ġchuck": 4188,
      "Ġspun": 4189,
      "Ġunlike": 4190,
      "Ġunicorn": 4191,
      "Ġgrown": 4192,
      "Ġhoarse": 4193,
      "Ġcontents": 4194,
      "uddy": 4195,
      "Ġdrown": 4196,
      "Ġenter": 4197,
      "Ġterror": 4198,
      "Ġsupport": 4199,
      "Ġskull": 4200,
      "ensive": 4201,
      "Ġbrooms": 4202,
      "Ġstraightened": 4203,
      "Ġstuffed": 4204,
      "Ġstreng": 4205,
      "Ġobvious": 4206,
      "Ġpowers": 4207,
      "Ġcroaked": 4208,
      "ĠAuror": 4209,
      "Ġdisappointed": 4210,
      "Ġfolded": 4211,
      "ĠYaxley": 4212,
      "bel": 4213,
      "ibb": 4214,
      "Ġhorn": 4215,
      "ĠHoo": 4216,
      "Ġcow": 4217,
      "Ġdry": 4218,
      "Ġner": 4219,
      "Ġstate": 4220,
      "oop": 4221,
      "ĠMung": 4222,
      "ĠMuri": 4223,
      "ĠAb": 4224,
      "ĠPre": 4225,
      "ĠCourse": 4226,
      "ĠGru": 4227,
      "ĠGreg": 4228,
      "ĠFigg": 4229,
      "Ġrisk": 4230,
      "Ġspiders": 4231,
      "Ġglared": 4232,
      "Ġgras": 4233,
      "Ġgrate": 4234,
      "Ġdism": 4235,
      "ĠBeaux": 4236,
      "ĠBlimey": 4237,
      "reaked": 4238,
      "Ġdeeper": 4239,
      "Ġmemories": 4240,
      "Ġcelebr": 4241,
      "Ġreport": 4242,
      "Ġportraits": 4243,
      "Ġconsider": 4244,
      "ĠPlank": 4245,
      "Ġshrugged": 4246,
      "Ġtraveling": 4247,
      "Ġapplause": 4248,
      "Ġentirely": 4249,
      "Ġincluding": 4250,
      "Ġinterrupted": 4251,
      "Ġscrambled": 4252,
      "batons": 4253,
      "Ġfarther": 4254,
      "ĠMungo": 4255,
      "ĠMuriel": 4256,
      "ĠGrubbly": 4257,
      "ĠBeauxbatons": 4258,
      "dge": 4259,
      "kn": 4260,
      "ky": 4261,
      "uly": 4262,
      "Ġbank": 4263,
      "Ġbrief": 4264,
      "ĠHat": 4265,
      "Ġdaz": 4266,
      "Ġdashed": 4267,
      "irling": 4268,
      "ĠAd": 4269,
      "Ġfort": 4270,
      "ĠFirst": 4271,
      "Ġgoes": 4272,
      "Ġsucc": 4273,
      "Ġconn": 4274,
      "Ġwhenever": 4275,
      "ĠThough": 4276,
      "Ġclock": 4277,
      "Ġclosing": 4278,
      "ĠNext": 4279,
      "Ġbringing": 4280,
      "uffled": 4281,
      "ordan": 4282,
      "bert": 4283,
      "ĠJordan": 4284,
      "Ġcracked": 4285,
      "Ġended": 4286,
      "Ġclever": 4287,
      "ĠPeter": 4288,
      "Ġdisturb": 4289,
      "Ġcrowded": 4290,
      "ĠExp": 4291,
      "Ġrefused": 4292,
      "Ġerup": 4293,
      "Ġcenter": 4294,
      "Ġfifth": 4295,
      "Ġsunlight": 4296,
      "Ġimagined": 4297,
      "Ġspiral": 4298,
      "Ġseventh": 4299,
      "Ġsparks": 4300,
      "Ġsleeve": 4301,
      "Ġprepared": 4302,
      "ĠHollow": 4303,
      "Ġbitterly": 4304,
      "Ġnewspaper": 4305,
      "Ġthoroughly": 4306,
      "OW": 4307,
      "ground": 4308,
      "Ġid": 4309,
      "Ġamb": 4310,
      "Ġsinging": 4311,
      "Ġthestr": 4312,
      "Ġcause": 4313,
      "Ġcausing": 4314,
      "Ġbeak": 4315,
      "icia": 4316,
      "ented": 4317,
      "Ġsea": 4318,
      "ĠHey": 4319,
      "ummon": 4320,
      "ĠGive": 4321,
      "Ġris": 4322,
      "top": 4323,
      "Ġlip": 4324,
      "Ġiss": 4325,
      "ĠOU": 4326,
      "ĠOur": 4327,
      "Ġchin": 4328,
      "Ġscow": 4329,
      "Ġscra": 4330,
      "Ġclapped": 4331,
      "Ġflood": 4332,
      "Ġspecial": 4333,
      "Ġprog": 4334,
      "Ġbottles": 4335,
      "ĠDoge": 4336,
      "Ġimpressed": 4337,
      "ails": 4338,
      "Ġincre": 4339,
      "ĠAlicia": 4340,
      "Ġkindly": 4341,
      "Ġmarks": 4342,
      "Ġevidence": 4343,
      "ĠRegulus": 4344,
      "arrass": 4345,
      "Ġvaguely": 4346,
      "Ġenvelope": 4347,
      "Ġlength": 4348,
      "Ġmuffled": 4349,
      "Ġtoilet": 4350,
      "ĠHooch": 4351,
      "GH": 4352,
      "IT": 4353,
      "ixt": 4354,
      "lass": 4355,
      "min": 4356,
      "the": 4357,
      "Ġing": 4358,
      "heard": 4359,
      "ĠHang": 4360,
      "Ġtot": 4361,
      "Ġcapt": 4362,
      "Ġpred": 4363,
      "ĠTournament": 4364,
      "Ġwear": 4365,
      "Ġash": 4366,
      "ĠBoy": 4367,
      "ĠBarty": 4368,
      "Ġrap": 4369,
      "Ġrules": 4370,
      "ĠLestr": 4371,
      "ĠLittle": 4372,
      "astically": 4373,
      "Ġaband": 4374,
      "istress": 4375,
      "Ġroad": 4376,
      "Ġhanding": 4377,
      "Ġgotten": 4378,
      "aptain": 4379,
      "Ġmod": 4380,
      "Ġtrunks": 4381,
      "ĠUnder": 4382,
      "Ġprison": 4383,
      "Ġdarkly": 4384,
      "Ġpleasure": 4385,
      "Ġdropping": 4386,
      "Ġexams": 4387,
      "Ġrelieved": 4388,
      "Ġinterv": 4389,
      "Ġchecked": 4390,
      "Ġopport": 4391,
      "ĠSeveral": 4392,
      "Ġpretend": 4393,
      "aturally": 4394,
      "Ġdiscuss": 4395,
      "ovitch": 4396,
      "Ġembarrass": 4397,
      "Ġbewild": 4398,
      "Ġstaggered": 4399,
      "Ġspectacles": 4400,
      "ĠAND": 4401,
      "Ġwhispering": 4402,
      "ajam": 4403,
      "ĠOcclum": 4404,
      "Ġtunnel": 4405,
      "Ġbogg": 4406,
      "pes": 4407,
      "wid": 4408,
      "Ġtill": 4409,
      "Ġwed": 4410,
      "Ġwid": 4411,
      "Ġwore": 4412,
      "Ġfal": 4413,
      "Ġfang": 4414,
      "ator": 4415,
      "Ġdawn": 4416,
      "Ġpu": 4417,
      "Ġpicking": 4418,
      "Ġpajam": 4419,
      "uttering": 4420,
      "outs": 4421,
      "Ġrequ": 4422,
      "ĠArian": 4423,
      "amped": 4424,
      "illed": 4425,
      "ledge": 4426,
      "ĠYet": 4427,
      "Ġaloud": 4428,
      "Ġoffered": 4429,
      "Ġblow": 4430,
      "Ġscri": 4431,
      "Ġplenty": 4432,
      "Ġplates": 4433,
      "Ġclen": 4434,
      "Ġcomes": 4435,
      "arsh": 4436,
      "ĠChas": 4437,
      "Ġneeds": 4438,
      "ĠInst": 4439,
      "Ġamount": 4440,
      "Ġolder": 4441,
      "onscious": 4442,
      "ission": 4443,
      "Ġboat": 4444,
      "Ġforever": 4445,
      "ĠMyster": 4446,
      "aughter": 4447,
      "Ġrubbing": 4448,
      "Ġbrothers": 4449,
      "Ġwarned": 4450,
      "Ġbarrier": 4451,
      "Ġignoring": 4452,
      "Ġeggs": 4453,
      "Ġbowl": 4454,
      "Ġfamilies": 4455,
      "Ġmassive": 4456,
      "ribly": 4457,
      "Ġcorrect": 4458,
      "ĠPigwid": 4459,
      "Ġaccompan": 4460,
      "ĠAriana": 4461,
      "ĠPigwidgeon": 4462,
      "aim": 4463,
      "iver": 4464,
      "lve": 4465,
      "ning": 4466,
      "over": 4467,
      "Ġaut": 4468,
      "Ġsink": 4469,
      "Ġwiping": 4470,
      "Ġhate": 4471,
      "Ġband": 4472,
      "ĠHA": 4473,
      "Ġcous": 4474,
      "asantly": 4475,
      "Ġmumbled": 4476,
      "ĠIN": 4477,
      "Ġsav": 4478,
      "ooping": 4479,
      "ĠMore": 4480,
      "Ġweather": 4481,
      "urg": 4482,
      "ĠRo": 4483,
      "Ġank": 4484,
      "Ġself": 4485,
      "Ġshown": 4486,
      "ĠCauldron": 4487,
      "que": 4488,
      "Ġvast": 4489,
      "ĠWhich": 4490,
      "Ġnowhere": 4491,
      "ivered": 4492,
      "Ġarr": 4493,
      "idding": 4494,
      "Ġbrisk": 4495,
      "unged": 4496,
      "Ġkeeps": 4497,
      "aze": 4498,
      "Ġsteal": 4499,
      "retched": 4500,
      "Ġdistracted": 4501,
      "Ġdecis": 4502,
      "ĠExcellent": 4503,
      "Ġmatters": 4504,
      "Ġknocking": 4505,
      "Ġgrimly": 4506,
      "Ġpounding": 4507,
      "Ġwrapped": 4508,
      "merta": 4509,
      "olutely": 4510,
      "theless": 4511,
      "CK": 4512,
      "lish": 4513,
      "oh": 4514,
      "pted": 4515,
      "ini": 4516,
      "arger": 4517,
      "Ġborrow": 4518,
      "Ġfake": 4519,
      "ato": 4520,
      "atively": 4521,
      "itude": 4522,
      "orovitch": 4523,
      "Ġhex": 4524,
      "Ġpool": 4525,
      "Ġpages": 4526,
      "omas": 4527,
      "Ġstu": 4528,
      "ĠWait": 4529,
      "Ġweap": 4530,
      "adem": 4531,
      "agog": 4532,
      "ries": 4533,
      "Ġshape": 4534,
      "ĠCatter": 4535,
      "ĠFore": 4536,
      "Ġgod": 4537,
      "Ġlies": 4538,
      "Ġvict": 4539,
      "Ġroots": 4540,
      "Ġchosen": 4541,
      "Ġblame": 4542,
      "Ġblinked": 4543,
      "ĠThomas": 4544,
      "Ġspeech": 4545,
      "Ġsilently": 4546,
      "Ġcoat": 4547,
      "isely": 4548,
      "Ġimpro": 4549,
      "Ġcurious": 4550,
      "Ġcuriously": 4551,
      "Ġraise": 4552,
      "Ġsitu": 4553,
      "ĠAragog": 4554,
      "Ġcarp": 4555,
      "Ġpainful": 4556,
      "Ġswear": 4557,
      "anches": 4558,
      "Ġburied": 4559,
      "Ġbush": 4560,
      "Ġserp": 4561,
      "Ġgiants": 4562,
      "Ġpictures": 4563,
      "Ġoccurred": 4564,
      "Ġsafely": 4565,
      "Ġdusty": 4566,
      "Ġreplied": 4567,
      "Ġfoolish": 4568,
      "Ġcentaur": 4569,
      "Ġcentaurs": 4570,
      "Ġirritably": 4571,
      "ĠFinally": 4572,
      "Ġpersuade": 4573,
      "Ġfiercely": 4574,
      "ĠImperius": 4575,
      "Ġwrenched": 4576,
      "ĠRosmerta": 4577,
      "ĠBroomstick": 4578,
      "ĠGregorovitch": 4579,
      "ĠCatterm": 4580,
      "CH": 4581,
      "book": 4582,
      "mp": 4583,
      "ract": 4584,
      "Ġident": 4585,
      "Ġutter": 4586,
      "Ġtapped": 4587,
      "Ġsong": 4588,
      "rer": 4589,
      "ĠHorn": 4590,
      "ĠHigh": 4591,
      "Ġcaut": 4592,
      "asing": 4593,
      "Ġlarger": 4594,
      "Ġthir": 4595,
      "Ġbear": 4596,
      "use": 4597,
      "Ġstar": 4598,
      "Ġstern": 4599,
      "ĠTO": 4600,
      "ĠTed": 4601,
      "ĠMap": 4602,
      "rodu": 4603,
      "Ġrele": 4604,
      "ĠBet": 4605,
      "ĠBinn": 4606,
      "Ġshake": 4607,
      "Ġneigh": 4608,
      "tedly": 4609,
      "Ġshelves": 4610,
      "igan": 4611,
      "Ġposter": 4612,
      "Ġknowledge": 4613,
      "ĠDear": 4614,
      "Ġremaining": 4615,
      "Ġbranches": 4616,
      "Ġaccept": 4617,
      "Ġarmor": 4618,
      "Ġsniff": 4619,
      "ĠDoes": 4620,
      "Ġmustache": 4621,
      "Ġwrist": 4622,
      "Ġsetting": 4623,
      "Ġstartled": 4624,
      "Ġplayed": 4625,
      "Ġstayed": 4626,
      "ĠJustin": 4627,
      "bology": 4628,
      "Ġyounger": 4629,
      "anned": 4630,
      "Ġevil": 4631,
      "ĠHerbology": 4632,
      "Ġcollap": 4633,
      "Ġdisappear": 4634,
      "Ġrecognize": 4635,
      "Ġblankly": 4636,
      "Ġsearch": 4637,
      "Ġenjoying": 4638,
      "Ġdreadful": 4639,
      "Ġappreci": 4640,
      "Ġthreatening": 4641,
      "Ġnoises": 4642,
      "Ġsnatched": 4643,
      "Ġbeautiful": 4644,
      "Ġidi": 4645,
      "ĠOcclumency": 4646,
      "Ġboggart": 4647,
      "ĠMysteries": 4648,
      "ĠForest": 4649,
      "ĠBinns": 4650,
      "TER": 4651,
      "dy": 4652,
      "Ġourse": 4653,
      "Ġach": 4654,
      "Ġsides": 4655,
      "erth": 4656,
      "ĠHE": 4657,
      "Ġlined": 4658,
      "Ġgarg": 4659,
      "Ġbearing": 4660,
      "Ġbeamed": 4661,
      "robe": 4662,
      "uture": 4663,
      "ĠPark": 4664,
      "chief": 4665,
      "Ġrush": 4666,
      "ĠNamed": 4667,
      "ustr": 4668,
      "Ġdel": 4669,
      "ulously": 4670,
      "icken": 4671,
      "Ġsched": 4672,
      "Ġplans": 4673,
      "Ġorange": 4674,
      "Ġcomment": 4675,
      "Ġartic": 4676,
      "Ġflight": 4677,
      "Ġways": 4678,
      "Ġdesc": 4679,
      "Ġdesire": 4680,
      "Ġmeaning": 4681,
      "ĠBlood": 4682,
      "Ġbeds": 4683,
      "Ġsuppor": 4684,
      "Ġrespect": 4685,
      "lier": 4686,
      "Ġinstantly": 4687,
      "Ġstopping": 4688,
      "Ġmember": 4689,
      "rawled": 4690,
      "Ġsigns": 4691,
      "inson": 4692,
      "Ġinsides": 4693,
      "Ġunconscious": 4694,
      "Ġsprang": 4695,
      "Ġvelve": 4696,
      "Ġregret": 4697,
      "Ġcollect": 4698,
      "Ġthrust": 4699,
      "Ġglee": 4700,
      "ĠMaraud": 4701,
      "Ġtransp": 4702,
      "ĠPhoenix": 4703,
      "Ġbleeding": 4704,
      "Ġcheerful": 4705,
      "Ġenchant": 4706,
      "Ġwedding": 4707,
      "Ġpajamas": 4708,
      "Ġgodfather": 4709,
      "ĠCattermole": 4710,
      "Ġourselves": 4711,
      "ĠParkinson": 4712,
      "oot": 4713,
      "Ġicy": 4714,
      "Ġhated": 4715,
      "Ġbuck": 4716,
      "atically": 4717,
      "asc": 4718,
      "Ġlump": 4719,
      "Ġpet": 4720,
      "Ġgif": 4721,
      "Ġnon": 4722,
      "otting": 4723,
      "Ġwhipped": 4724,
      "ĠThese": 4725,
      "kend": 4726,
      "ĠPort": 4727,
      "ume": 4728,
      "Ġshaped": 4729,
      "ĠCom": 4730,
      "ilisk": 4731,
      "ĠNone": 4732,
      "ĠOver": 4733,
      "Ġabou": 4734,
      "Ġsuper": 4735,
      "Ġchocolate": 4736,
      "Ġchanging": 4737,
      "Ġblast": 4738,
      "Ġyelling": 4739,
      "Ġmoaned": 4740,
      "Ġgrunted": 4741,
      "Ġprodu": 4742,
      "ording": 4743,
      "Ġcrump": 4744,
      "Ġpassword": 4745,
      "Ġskrew": 4746,
      "ilder": 4747,
      "ruci": 4748,
      "shot": 4749,
      "Ġcell": 4750,
      "Ġhopefully": 4751,
      "Ġbreathlessly": 4752,
      "Ġhats": 4753,
      "Ġpresence": 4754,
      "Ġpieces": 4755,
      "Ġintrodu": 4756,
      "Ġbarked": 4757,
      "Ġballs": 4758,
      "Ġcabinet": 4759,
      "neath": 4760,
      "Ġextraord": 4761,
      "Ġdisgust": 4762,
      "Ġreplaced": 4763,
      "Ġcircular": 4764,
      "Ġpermission": 4765,
      "Ġcandle": 4766,
      "Ġinjured": 4767,
      "ottage": 4768,
      "ĠConf": 4769,
      "Ġindignantly": 4770,
      "ĠBulgar": 4771,
      "Ġstrength": 4772,
      "Ġbewildered": 4773,
      "Ġneighb": 4774,
      "UM": 4775,
      "time": 4776,
      "Ġwoke": 4777,
      "Ġfan": 4778,
      "Ġfaded": 4779,
      "Ġmot": 4780,
      "Ġpurs": 4781,
      "Ġpitched": 4782,
      "Ġbeating": 4783,
      "ales": 4784,
      "Ġfrag": 4785,
      "ĠGilder": 4786,
      "Ġoutst": 4787,
      "Ġjuice": 4788,
      "Ġsoaring": 4789,
      "ĠOwl": 4790,
      "antically": 4791,
      "Ġagree": 4792,
      "apers": 4793,
      "Ġswif": 4794,
      "ĠDec": 4795,
      "Ġbrains": 4796,
      "hens": 4797,
      "Ġgreatest": 4798,
      "ĠAnother": 4799,
      "avior": 4800,
      "Ġlistened": 4801,
      "Ġsweeping": 4802,
      "Ġvision": 4803,
      "Ġweekend": 4804,
      "Ġpockets": 4805,
      "Ġapo": 4806,
      "intment": 4807,
      "Ġquills": 4808,
      "Ġsearching": 4809,
      "Ġseventeen": 4810,
      "Ġimmense": 4811,
      "Ġjerked": 4812,
      "Ġcheek": 4813,
      "Ġdamage": 4814,
      "Ġconcerned": 4815,
      "Ġbodies": 4816,
      "ĠMarauder": 4817,
      "ĠGilderoy": 4818,
      "ET": 4819,
      "yl": 4820,
      "Ġtense": 4821,
      "Ġsinking": 4822,
      "res": 4823,
      "Ġban": 4824,
      "Ġbigg": 4825,
      "Ġfet": 4826,
      "isc": 4827,
      "Ġcave": 4828,
      "Ġheight": 4829,
      "Ġheaved": 4830,
      "Ġdance": 4831,
      "Ġlines": 4832,
      "Ġthud": 4833,
      "Ġpuff": 4834,
      "Ġstol": 4835,
      "Ġstories": 4836,
      "ĠTra": 4837,
      "ĠSil": 4838,
      "Ġwitness": 4839,
      "redi": 4840,
      "Ġforcing": 4841,
      "Ġframe": 4842,
      "Ġdod": 4843,
      "ilty": 4844,
      "Ġfeat": 4845,
      "Ġallow": 4846,
      "ĠWhile": 4847,
      "Ġoverheard": 4848,
      "Ġspat": 4849,
      "Ġspoken": 4850,
      "Ġsme": 4851,
      "Ġaccus": 4852,
      "ĠMinerv": 4853,
      "Ġfeelings": 4854,
      "ĠStud": 4855,
      "Ġcurses": 4856,
      "well": 4857,
      "umping": 4858,
      "ship": 4859,
      "ĠForbidden": 4860,
      "Ġdiadem": 4861,
      "Ġmonster": 4862,
      "abbed": 4863,
      "Ġtraining": 4864,
      "Ġhungry": 4865,
      "Ġchoked": 4866,
      "Ġpromise": 4867,
      "Ġpackage": 4868,
      "Ġargum": 4869,
      "Ġalarmed": 4870,
      "cope": 4871,
      "Ġpublic": 4872,
      "Ġevidently": 4873,
      "Ġexploded": 4874,
      "Ġcoolly": 4875,
      "fortunately": 4876,
      "Ġsuccess": 4877,
      "Ġingredi": 4878,
      "Ġopportunity": 4879,
      "Ġthirteen": 4880,
      "Ġstolen": 4881,
      "ĠMinerva": 4882,
      "cul": 4883,
      "Ġice": 4884,
      "Ġtick": 4885,
      "Ġwar": 4886,
      "Ġhill": 4887,
      "Ġfail": 4888,
      "Ġfoul": 4889,
      "Ġtore": 4890,
      "itching": 4891,
      "Ġgate": 4892,
      "Ġginger": 4893,
      "ĠMA": 4894,
      "ental": 4895,
      "Ġreck": 4896,
      "Ġwithd": 4897,
      "Ġancient": 4898,
      "ĠCree": 4899,
      "ĠCaptain": 4900,
      "ĠFine": 4901,
      "Ġrise": 4902,
      "Ġsobbing": 4903,
      "loh": 4904,
      "quid": 4905,
      "ĠOff": 4906,
      "Ġexcuse": 4907,
      "Ġtear": 4908,
      "Ġchamber": 4909,
      "Ġclue": 4910,
      "Ġbehavior": 4911,
      "Ġloss": 4912,
      "Ġprick": 4913,
      "Ġwaist": 4914,
      "Ġcontem": 4915,
      "Ġimpress": 4916,
      "Ġhorrified": 4917,
      "Ġguilty": 4918,
      "Ġacting": 4919,
      "Ġcloaks": 4920,
      "abini": 4921,
      "atural": 4922,
      "ĠMoaning": 4923,
      "ĠZabini": 4924,
      "Ġsneered": 4925,
      "ĠSmith": 4926,
      "Ġwardrobe": 4927,
      "Ġenchanted": 4928,
      "Ġannoyed": 4929,
      "Ġmurdered": 4930,
      "Ġconcealed": 4931,
      "Ġexchanged": 4932,
      "Ġbuilding": 4933,
      "ĠExpress": 4934,
      "Ġinterview": 4935,
      "Ġcousin": 4936,
      "Ġcarpet": 4937,
      "ĠCreevey": 4938,
      "ION": 4939,
      "juice": 4940,
      "uch": 4941,
      "uished": 4942,
      "Ġsilly": 4943,
      "Ġwishing": 4944,
      "Ġharm": 4945,
      "Ġbull": 4946,
      "iting": 4947,
      "Ġcra": 4948,
      "Ġcared": 4949,
      "Ġcush": 4950,
      "Ġdaughter": 4951,
      "Ġmate": 4952,
      "Ġlab": 4953,
      "Ġlaw": 4954,
      "Ġpal": 4955,
      "Ġpour": 4956,
      "Ġgates": 4957,
      "lyjuice": 4958,
      "Ġequ": 4959,
      "etr": 4960,
      "ĠMag": 4961,
      "irled": 4962,
      "ĠRu": 4963,
      "Ġnoticing": 4964,
      "ĠBerth": 4965,
      "Ġupside": 4966,
      "Ġalley": 4967,
      "Ġsobbed": 4968,
      "Ġliquid": 4969,
      "Ġdeaf": 4970,
      "Ġuns": 4971,
      "Ġflow": 4972,
      "Ġdisbel": 4973,
      "ĠNeither": 4974,
      "Ġpros": 4975,
      "Ġfocus": 4976,
      "Ġtalked": 4977,
      "ĠIntern": 4978,
      "Ġbits": 4979,
      "Ġdecor": 4980,
      "Ġdragging": 4981,
      "Ġscreams": 4982,
      "Ġcatching": 4983,
      "Ġrigh": 4984,
      "Ġexamination": 4985,
      "Ġsubst": 4986,
      "Ġemerging": 4987,
      "Ġstrangely": 4988,
      "Ġweakly": 4989,
      "Ġpossession": 4990,
      "ENT": 4991,
      "ĠMean": 4992,
      "Ġsensation": 4993,
      "ĠPolyjuice": 4994,
      "Ġmiserably": 4995,
      "Ġsadly": 4996,
      "Ġuncomfortable": 4997,
      "Ġsource": 4998,
      "Ġenthusi": 4999,
      "Ġerupted": 5000,
      "Ġrapidly": 5001,
      "Ġclenched": 5002,
      "Ġweapon": 5003,
      "ĠBroomsticks": 5004,
      "ĠPortkey": 5005,
      "ĠBertha": 5006,
      "ĠInternational": 5007,
      "US": 5008,
      "bag": 5009,
      "band": 5010,
      "fa": 5011,
      "iving": 5012,
      "ives": 5013,
      "mn": 5014,
      "men": 5015,
      "nes": 5016,
      "oll": 5017,
      "Ġsunk": 5018,
      "Ġwine": 5019,
      "oub": 5020,
      "Ġbra": 5021,
      "Ġbite": 5022,
      "Ġbree": 5023,
      "Ġfash": 5024,
      "Ġoak": 5025,
      "Ġtoast": 5026,
      "itor": 5027,
      "idence": 5028,
      "Ġden": 5029,
      "Ġdamp": 5030,
      "Ġlately": 5031,
      "esh": 5032,
      "Ġsticking": 5033,
      "ĠMond": 5034,
      "uts": 5035,
      "ĠDol": 5036,
      "terday": 5037,
      "ĠBones": 5038,
      "ĠFinn": 5039,
      "Ġnecess": 5040,
      "ĠNimb": 5041,
      "Ġsofa": 5042,
      "quis": 5043,
      "Ġvic": 5044,
      "Ġchose": 5045,
      "Ġspinning": 5046,
      "Ġhandker": 5047,
      "Ġscrew": 5048,
      "Ġclip": 5049,
      "Ġclamb": 5050,
      "ĠThose": 5051,
      "Ġtray": 5052,
      "Ġunderneath": 5053,
      "Ġproof": 5054,
      "Ġlightning": 5055,
      "iety": 5056,
      "Ġretreat": 5057,
      "lint": 5058,
      "phone": 5059,
      "Ġrecord": 5060,
      "Ġhorribly": 5061,
      "Ġawful": 5062,
      "Ġhitting": 5063,
      "ĠShut": 5064,
      "ĠShould": 5065,
      "Ġcompet": 5066,
      "Ġbags": 5067,
      "Ġtrip": 5068,
      "Ġapproaching": 5069,
      "Ġearlier": 5070,
      "Ġtorn": 5071,
      "Ġrattling": 5072,
      "Ġbasilisk": 5073,
      "Ġpassageway": 5074,
      "ĠApparate": 5075,
      "Ġ11": 5076,
      "Ġreveal": 5077,
      "Ġfists": 5078,
      "ĠSpells": 5079,
      "Ġmiserable": 5080,
      "Ġrevol": 5081,
      "Ġsquealed": 5082,
      "Ġservant": 5083,
      "amming": 5084,
      "Ġpumpkin": 5085,
      "Ġwiped": 5086,
      "ĠAbout": 5087,
      "Ġconnection": 5088,
      "Ġaccompanied": 5089,
      "Ġbriskly": 5090,
      "Ġarticle": 5091,
      "Ġoutstretched": 5092,
      "ĠTravers": 5093,
      "ĠMeanwhile": 5094,
      "ĠMonday": 5095,
      "ĠDolores": 5096,
      "ĠFinnigan": 5097,
      "ĠNimbus": 5098,
      "Ġhandkerchief": 5099,
      "EC": 5100,
      "IS": 5101,
      "aa": 5102,
      "ec": 5103,
      "for": 5104,
      "ipe": 5105,
      "tin": 5106,
      "Ġille": 5107,
      "Ġske": 5108,
      "Ġfaster": 5109,
      "athered": 5110,
      "issed": 5111,
      "Ġcack": 5112,
      "ashes": 5113,
      "Ġhero": 5114,
      "Ġdut": 5115,
      "Ġdate": 5116,
      "Ġdangling": 5117,
      "Ġpup": 5118,
      "Ġpier": 5119,
      "Ġpaid": 5120,
      "Ġgent": 5121,
      "Ġgap": 5122,
      "ĠTe": 5123,
      "ĠTen": 5124,
      "ĠMany": 5125,
      "ĠWhe": 5126,
      "Ġshield": 5127,
      "ĠCruci": 5128,
      "Ġoutr": 5129,
      "ĠFlint": 5130,
      "Ġknot": 5131,
      "anding": 5132,
      "ĠNice": 5133,
      "Ġjacket": 5134,
      "Ġnostri": 5135,
      "Ġcond": 5136,
      "Ġunm": 5137,
      "Ġblaz": 5138,
      "estry": 5139,
      "Ġclicked": 5140,
      "Ġsliding": 5141,
      "ĠThink": 5142,
      "Ġgrind": 5143,
      "Ġswinging": 5144,
      "Ġmanage": 5145,
      "Ġloved": 5146,
      "Ġbetr": 5147,
      "Ġwizarding": 5148,
      "ĠQuibb": 5149,
      "Ġcru": 5150,
      "igned": 5151,
      "Ġcasting": 5152,
      "Ġfriendly": 5153,
      "ĠHallow": 5154,
      "Ġexamined": 5155,
      "Ġarrival": 5156,
      "Ġsafety": 5157,
      "Ġpurpose": 5158,
      "Ġveel": 5159,
      "Ġsixth": 5160,
      "Ġsixteen": 5161,
      "Ġfaith": 5162,
      "Ġsuspected": 5163,
      "Ġeasier": 5164,
      "Ġignore": 5165,
      "ĠParse": 5166,
      "immering": 5167,
      "ĠApparition": 5168,
      "Ġdressing": 5169,
      "Ġshadowy": 5170,
      "Ġsuspicious": 5171,
      "Ġunex": 5172,
      "Ġbench": 5173,
      "zzled": 5174,
      "Ġtelephone": 5175,
      "Ġsqueezed": 5176,
      "Ġunusual": 5177,
      "Ġfangs": 5178,
      "Ġdecision": 5179,
      "Ġextraordinary": 5180,
      "Ġingredients": 5181,
      "Ġprospect": 5182,
      "Ġfashion": 5183,
      "Ġilleg": 5184,
      "wing": 5185,
      "resh": 5186,
      "ĠHas": 5187,
      "ĠHouses": 5188,
      "Ġfond": 5189,
      "ative": 5190,
      "itation": 5191,
      "Ġcough": 5192,
      "asper": 5193,
      "ids": 5194,
      "Ġducked": 5195,
      "Ġmoun": 5196,
      "ĠInd": 5197,
      "Ġbeet": 5198,
      "ettle": 5199,
      "vern": 5200,
      "ĠWar": 5201,
      "Ġreass": 5202,
      "Ġreply": 5203,
      "ality": 5204,
      "Ġfrantically": 5205,
      "ĠFour": 5206,
      "Ġrows": 5207,
      "ĠNO": 5208,
      "Ġlikes": 5209,
      "uded": 5210,
      "Ġexasper": 5211,
      "ousand": 5212,
      "Ġdelic": 5213,
      "ests": 5214,
      "ĠThousand": 5215,
      "bbling": 5216,
      "Ġtwig": 5217,
      "Ġtruly": 5218,
      "Ġflesh": 5219,
      "Ġswooped": 5220,
      "austed": 5221,
      "Ġopin": 5222,
      "Ġhappens": 5223,
      "Ġappo": 5224,
      "mbol": 5225,
      "Ġhollow": 5226,
      "Ġdrank": 5227,
      "ĠStunning": 5228,
      "Ġends": 5229,
      "ietta": 5230,
      "Ġperched": 5231,
      "Ġsteam": 5232,
      "Ġresent": 5233,
      "Ġinstant": 5234,
      "Ġribs": 5235,
      "ĠShack": 5236,
      "Ġmetal": 5237,
      "Ġsooner": 5238,
      "uthor": 5239,
      "Ġpressing": 5240,
      "Ġfifteen": 5241,
      "Ġboxes": 5242,
      "Ġpretended": 5243,
      "ĠMarietta": 5244,
      "Ġdormitories": 5245,
      "Ġfroze": 5246,
      "Ġpositively": 5247,
      "Ġtrap": 5248,
      "nected": 5249,
      "Ġgroaned": 5250,
      "Ġsymbol": 5251,
      "Ġcandles": 5252,
      "Ġsatisfied": 5253,
      "Ġreflected": 5254,
      "ĠBrown": 5255,
      "Ġfeeble": 5256,
      "Ġilluminated": 5257,
      "Ġconjured": 5258,
      "Ġashamed": 5259,
      "ĠLestrange": 5260,
      "Ġidiot": 5261,
      "Ġsupporters": 5262,
      "Ġvelvet": 5263,
      "do": 5264,
      "hs": 5265,
      "hind": 5266,
      "ient": 5267,
      "ught": 5268,
      "Ġhors": 5269,
      "atic": 5270,
      "Ġhedge": 5271,
      "Ġpudd": 5272,
      "Ġpush": 5273,
      "Ġgang": 5274,
      "Ġbending": 5275,
      "ĠMal": 5276,
      "ĠDO": 5277,
      "ĠDr": 5278,
      "adily": 5279,
      "ĠPad": 5280,
      "aying": 5281,
      "unting": 5282,
      "Ġrude": 5283,
      "Ġjar": 5284,
      "Ġwhee": 5285,
      "ĠOli": 5286,
      "ĠIts": 5287,
      "Ġchain": 5288,
      "Ġquivering": 5289,
      "Ġotherwise": 5290,
      "Ġflashed": 5291,
      "Ġletting": 5292,
      "Ġacce": 5293,
      "ishly": 5294,
      "ĠQuick": 5295,
      "ĠBehind": 5296,
      "Ġbedside": 5297,
      "Ġsmaller": 5298,
      "Ġsteady": 5299,
      "Ġreturning": 5300,
      "Ġripp": 5301,
      "Ġyesterday": 5302,
      "Ġrelax": 5303,
      "Ġsentence": 5304,
      "Ġexplan": 5305,
      "Ġrounded": 5306,
      "ĠWithout": 5307,
      "Ġassist": 5308,
      "Ġinvolved": 5309,
      "Ġiron": 5310,
      "imming": 5311,
      "ĠApparently": 5312,
      "ĠHufflepuffs": 5313,
      "Ġghosts": 5314,
      "ĠRemember": 5315,
      "Ġstronger": 5316,
      "Ġamongst": 5317,
      "Ġsuspiciously": 5318,
      "Ġpowder": 5319,
      "Ġjumping": 5320,
      "Ġguessed": 5321,
      "Ġhooded": 5322,
      "Ġdestroyed": 5323,
      "ĠSlow": 5324,
      "Ġbulging": 5325,
      "ĠInstead": 5326,
      "Ġsituation": 5327,
      "Ġapolo": 5328,
      "Ġgentle": 5329,
      "ĠQuibbler": 5330,
      "Ġveela": 5331,
      "Ġunexpected": 5332,
      "ĠOliver": 5333,
      "ID": 5334,
      "OM": 5335,
      "lace": 5336,
      "Ġtart": 5337,
      "Ġsigh": 5338,
      "Ġhus": 5339,
      "Ġhudd": 5340,
      "Ġbones": 5341,
      "Ġfuture": 5342,
      "Ġhell": 5343,
      "Ġpit": 5344,
      "Ġhamm": 5345,
      "Ġgathered": 5346,
      "Ġbeckon": 5347,
      "acle": 5348,
      "icis": 5349,
      "ĠSk": 5350,
      "ĠSor": 5351,
      "ĠSchool": 5352,
      "ĠStop": 5353,
      "Ġrever": 5354,
      "ĠRun": 5355,
      "Ġseizing": 5356,
      "rous": 5357,
      "Ġshivering": 5358,
      "pef": 5359,
      "ĠCle": 5360,
      "ĠCross": 5361,
      "ĠCertainly": 5362,
      "Ġrub": 5363,
      "Ġracing": 5364,
      "ĠLeak": 5365,
      "umble": 5366,
      "astic": 5367,
      "Ġlied": 5368,
      "Ġdept": 5369,
      "ĠEng": 5370,
      "Ġoffer": 5371,
      "arent": 5372,
      "Ġslim": 5373,
      "Ġslumped": 5374,
      "Ġtrace": 5375,
      "ode": 5376,
      "Ġwherever": 5377,
      "Ġelbow": 5378,
      "Ġstudying": 5379,
      "Ġkilling": 5380,
      "Ġresist": 5381,
      "Ġpainting": 5382,
      "Ġcontinuing": 5383,
      "Ġvisited": 5384,
      "ĠEverything": 5385,
      "Ġnecklace": 5386,
      "Ġpresents": 5387,
      "Ġhurtled": 5388,
      "Ġsuspe": 5389,
      "Ġpracticing": 5390,
      "Ġremembering": 5391,
      "Ġcutting": 5392,
      "Ġshooting": 5393,
      "Ġnormally": 5394,
      "Ġtrapped": 5395,
      "Ġordinary": 5396,
      "Ġfaintly": 5397,
      "Ġclouds": 5398,
      "ĠAurors": 5399,
      "Ġpillow": 5400,
      "Ġmountain": 5401,
      "Ġpenetr": 5402,
      "Ġtapestry": 5403,
      "Ġcrouched": 5404,
      "Ġdistinctly": 5405,
      "Ġserpent": 5406,
      "Ġcollapsed": 5407,
      "Ġmotor": 5408,
      "Ġargument": 5409,
      "Ġnostrils": 5410,
      "Ġhorses": 5411,
      "ĠLeaky": 5412,
      "AA": 5413,
      "IC": 5414,
      "abby": 5415,
      "fall": 5416,
      "lers": 5417,
      "ope": 5418,
      "Ġtank": 5419,
      "hest": 5420,
      "Ġwo": 5421,
      "Ġhoo": 5422,
      "Ġbal": 5423,
      "Ġbored": 5424,
      "Ġcottage": 5425,
      "Ġheaven": 5426,
      "enced": 5427,
      "Ġtha": 5428,
      "Ġthirty": 5429,
      "Ġpairs": 5430,
      "Ġgather": 5431,
      "Ġstool": 5432,
      "ĠTime": 5433,
      "add": 5434,
      "ĠBE": 5435,
      "ĠFive": 5436,
      "Ġrumm": 5437,
      "udged": 5438,
      "Ġleather": 5439,
      "inkling": 5440,
      "Ġchat": 5441,
      "ĠEv": 5442,
      "Ġspare": 5443,
      "Ġworks": 5444,
      "Ġorph": 5445,
      "Ġarch": 5446,
      "Ġflame": 5447,
      "Ġswirling": 5448,
      "Ġenem": 5449,
      "ĠPotters": 5450,
      "Ġspend": 5451,
      "mbled": 5452,
      "Ġprov": 5453,
      "Ġprove": 5454,
      "Ġparce": 5455,
      "Ġgreenh": 5456,
      "Ġmisty": 5457,
      "ĠLooking": 5458,
      "ouncing": 5459,
      "Ġoccup": 5460,
      "ARRY": 5461,
      "Ġaddressed": 5462,
      "Ġparticular": 5463,
      "Ġbroomsticks": 5464,
      "Ġsearched": 5465,
      "Ġdisgu": 5466,
      "ĠNorbert": 5467,
      "Ġenclo": 5468,
      "Ġencour": 5469,
      "Ġprefects": 5470,
      "ĠWillow": 5471,
      "Ġexhausted": 5472,
      "Ġmagnific": 5473,
      "Ġglimpse": 5474,
      "Ġfalse": 5475,
      "Ġreleased": 5476,
      "Ġgargoyle": 5477,
      "Ġcrumpled": 5478,
      "oubtedly": 5479,
      "Ġopinion": 5480,
      "ĠSlowly": 5481,
      "AS": 5482,
      "aly": 5483,
      "gan": 5484,
      "ially": 5485,
      "sy": 5486,
      "vin": 5487,
      "yard": 5488,
      "Ġauthor": 5489,
      "arias": 5490,
      "ĠHER": 5491,
      "ĠHARRY": 5492,
      "Ġomin": 5493,
      "Ġheal": 5494,
      "Ġheels": 5495,
      "Ġdrive": 5496,
      "Ġmud": 5497,
      "Ġmiles": 5498,
      "Ġlack": 5499,
      "Ġlaz": 5500,
      "esting": 5501,
      "Ġinten": 5502,
      "Ġsack": 5503,
      "otes": 5504,
      "ĠMont": 5505,
      "rolled": 5506,
      "ĠDung": 5507,
      "Ġupper": 5508,
      "ĠPOT": 5509,
      "uming": 5510,
      "ĠCl": 5511,
      "geons": 5512,
      "ĠNOT": 5513,
      "ĠOb": 5514,
      "Ġlegged": 5515,
      "Ġsuc": 5516,
      "Ġque": 5517,
      "Ġconnected": 5518,
      "apes": 5519,
      "Ġscur": 5520,
      "Ġtwisting": 5521,
      "Ġgliding": 5522,
      "ĠUp": 5523,
      "Ġflower": 5524,
      "olves": 5525,
      "Ġpeace": 5526,
      "Ġhappier": 5527,
      "Ġhappiness": 5528,
      "Ġloc": 5529,
      "acharias": 5530,
      "Ġhurting": 5531,
      "Ġowner": 5532,
      "bey": 5533,
      "Ġretrie": 5534,
      "awed": 5535,
      "Ġsquinting": 5536,
      "osp": 5537,
      "Ġobs": 5538,
      "Ġaction": 5539,
      "Ġpotions": 5540,
      "ĠFlet": 5541,
      "Ġthickly": 5542,
      "Ġuncertainly": 5543,
      "Ġwidely": 5544,
      "Ġmadly": 5545,
      "Ġemerald": 5546,
      "Ġdemon": 5547,
      "Ġdungeons": 5548,
      "Ġdiscussing": 5549,
      "Ġeaten": 5550,
      "Ġholiday": 5551,
      "ĠZacharias": 5552,
      "Ġsymp": 5553,
      "Ġcomplain": 5554,
      "Ġlamps": 5555,
      "Ġcheeks": 5556,
      "ĠDisapparated": 5557,
      "Ġantid": 5558,
      "Ġsmirking": 5559,
      "Ġbloke": 5560,
      "Ġmotionless": 5561,
      "Ġrumors": 5562,
      "Ġprogress": 5563,
      "Ġvictim": 5564,
      "Ġpouring": 5565,
      "Ġscrewed": 5566,
      "Ġclipboard": 5567,
      "ĠIndeed": 5568,
      "Ġhusband": 5569,
      "gr": 5570,
      "my": 5571,
      "por": 5572,
      "tion": 5573,
      "uce": 5574,
      "Ġtro": 5575,
      "Ġtipped": 5576,
      "Ġsized": 5577,
      "Ġharsh": 5578,
      "eds": 5579,
      "arter": 5580,
      "Ġfix": 5581,
      "athing": 5582,
      "Ġtopp": 5583,
      "asons": 5584,
      "Ġhem": 5585,
      "Ġmild": 5586,
      "Ġthread": 5587,
      "ĠIg": 5588,
      "Ġwaste": 5589,
      "ĠTurn": 5590,
      "ĠWitch": 5591,
      "ĠDunno": 5592,
      "alus": 5593,
      "rilly": 5594,
      "Ġfork": 5595,
      "Ġseve": 5596,
      "ĠBar": 5597,
      "Ġshare": 5598,
      "Ġshame": 5599,
      "Ġshade": 5600,
      "Ġshiny": 5601,
      "ĠChe": 5602,
      "ĠFather": 5603,
      "ĠFrog": 5604,
      "Ġrushed": 5605,
      "quarters": 5606,
      "Ġven": 5607,
      "Ġropes": 5608,
      "ulted": 5609,
      "Ġconcl": 5610,
      "Ġunkn": 5611,
      "Ġslamming": 5612,
      "Ġturns": 5613,
      "Ġarrest": 5614,
      "ĠChocolate": 5615,
      "Ġdislike": 5616,
      "Ġafterward": 5617,
      "Ġproceeded": 5618,
      "ĠDoloh": 5619,
      "Ġalongside": 5620,
      "ibr": 5621,
      "Ġbreathe": 5622,
      "Ġsigned": 5623,
      "Ġdetails": 5624,
      "cially": 5625,
      "Ġdisappro": 5626,
      "Ġdirections": 5627,
      "Ġmistaken": 5628,
      "Ġforgive": 5629,
      "Ġdreamed": 5630,
      "Ġflatly": 5631,
      "ĠPatil": 5632,
      "Ġadvice": 5633,
      "Ġtowering": 5634,
      "Ġmagaz": 5635,
      "Ġperformed": 5636,
      "Ġgrab": 5637,
      "Ġkids": 5638,
      "Ġsmoothly": 5639,
      "Ġrespons": 5640,
      "Ġaccidentally": 5641,
      "Ġroughly": 5642,
      "Ġurgently": 5643,
      "Ġnerve": 5644,
      "Ġdepths": 5645,
      "ĠMontague": 5646,
      "ĠDolohov": 5647,
      "LD": 5648,
      "gs": 5649,
      "gers": 5650,
      "lp": 5651,
      "mill": 5652,
      "mare": 5653,
      "rons": 5654,
      "tr": 5655,
      "turn": 5656,
      "ulf": 5657,
      "Ġver": 5658,
      "Ġhid": 5659,
      "Ġhushed": 5660,
      "Ġbore": 5661,
      "Ġcap": 5662,
      "Ġcake": 5663,
      "Ġhello": 5664,
      "Ġdarted": 5665,
      "Ġdiv": 5666,
      "Ġmed": 5667,
      "Ġmaze": 5668,
      "Ġlan": 5669,
      "Ġlane": 5670,
      "Ġloose": 5671,
      "Ġthresh": 5672,
      "Ġpapers": 5673,
      "Ġhissing": 5674,
      "ĠSpe": 5675,
      "enth": 5676,
      "Ġreaching": 5677,
      "alled": 5678,
      "Ġshak": 5679,
      "Ġupright": 5680,
      "Ġfrustr": 5681,
      "cerer": 5682,
      "udging": 5683,
      "Ġexting": 5684,
      "Ġrope": 5685,
      "Ġcharge": 5686,
      "Ġchains": 5687,
      "Ġuseless": 5688,
      "iece": 5689,
      "Ġclub": 5690,
      "Ġtwin": 5691,
      "Ġgrump": 5692,
      "Ġthoughtfully": 5693,
      "Ġensure": 5694,
      "Ġrooms": 5695,
      "Ġsilk": 5696,
      "Ġdesks": 5697,
      "Ġcrammed": 5698,
      "Ġimpr": 5699,
      "ĠStu": 5700,
      "Ġcurre": 5701,
      "osity": 5702,
      "Ġsteadily": 5703,
      "Ġresc": 5704,
      "ĠExactly": 5705,
      "Ġsorts": 5706,
      "Ġleaf": 5707,
      "Ġmonst": 5708,
      "version": 5709,
      "ĠHeadm": 5710,
      "Ġedged": 5711,
      "Ġrule": 5712,
      "Ġfilling": 5713,
      "ĠRavenclaws": 5714,
      "Ġavoiding": 5715,
      "Ġshrugging": 5716,
      "Ġdares": 5717,
      "Ġridicul": 5718,
      "Ġborns": 5719,
      "Ġhonor": 5720,
      "Ġtraveled": 5721,
      "Ġapprehens": 5722,
      "ĠMerlin": 5723,
      "Ġprotective": 5724,
      "Ġgloomily": 5725,
      "Ġduel": 5726,
      "Ġswayed": 5727,
      "Ġdrifted": 5728,
      "Ġmysterious": 5729,
      "ĠOUT": 5730,
      "Ġenthusiastically": 5731,
      "quisitor": 5732,
      "Ġclambered": 5733,
      "Ġduty": 5734,
      "Ġsuspended": 5735,
      "Ġthreshold": 5736,
      "RA": 5737,
      "UR": 5738,
      "hin": 5739,
      "Ġtur": 5740,
      "hetic": 5741,
      "Ġhut": 5742,
      "ĠHI": 5743,
      "Ġfus": 5744,
      "atch": 5745,
      "itions": 5746,
      "Ġcart": 5747,
      "Ġdart": 5748,
      "Ġling": 5749,
      "Ġhairy": 5750,
      "Ġgall": 5751,
      "Ġgown": 5752,
      "Ġinvent": 5753,
      "Ġbeast": 5754,
      "Ġstamp": 5755,
      "oos": 5756,
      "ĠMaking": 5757,
      "Ġumb": 5758,
      "ĠRom": 5759,
      "ĠAst": 5760,
      "Ġformed": 5761,
      "ĠHeal": 5762,
      "ĠBo": 5763,
      "ĠBus": 5764,
      "Ġkettle": 5765,
      "Ġmeasure": 5766,
      "ĠFrid": 5767,
      "Ġvac": 5768,
      "Ġroaring": 5769,
      "oyal": 5770,
      "eper": 5771,
      "Ġyourselves": 5772,
      "Ġeyel": 5773,
      "Ġbloody": 5774,
      "Ġblinking": 5775,
      "Ġslit": 5776,
      "Ġslipping": 5777,
      "ĠThought": 5778,
      "anges": 5779,
      "Ġhowling": 5780,
      "gging": 5781,
      "Ġremains": 5782,
      "Ġsnorted": 5783,
      "ĠInfer": 5784,
      "ĠInquisitor": 5785,
      "Ġdrained": 5786,
      "Ġchess": 5787,
      "Ġcrooked": 5788,
      "Ġcurtly": 5789,
      "Ġobsc": 5790,
      "Ġresults": 5791,
      "Ġtreasure": 5792,
      "Ġinstance": 5793,
      "Ġstole": 5794,
      "Ġpainfully": 5795,
      "Ġexpress": 5796,
      "Ġideas": 5797,
      "Ġdecent": 5798,
      "Ġmarried": 5799,
      "Ġdefi": 5800,
      "Ġdefense": 5801,
      "Ġplayers": 5802,
      "ĠShall": 5803,
      "Ġexamine": 5804,
      "Ġtroub": 5805,
      "Ġgasp": 5806,
      "ĠWizards": 5807,
      "Ġtentatively": 5808,
      "Ġgripped": 5809,
      "Ġstretching": 5810,
      "Ġshoes": 5811,
      "Ġshriek": 5812,
      "ĠSecond": 5813,
      "Ġtrembled": 5814,
      "Ġabsence": 5815,
      "Ġsnowy": 5816,
      "Ġblew": 5817,
      "Ġjeans": 5818,
      "ĠMerope": 5819,
      "Ġblocked": 5820,
      "Ġlurking": 5821,
      "Ġbelonged": 5822,
      "Ġstreaming": 5823,
      "Ġplainly": 5824,
      "ĠFelix": 5825,
      "Ġcontrary": 5826,
      "Ġadmir": 5827,
      "Ġvarious": 5828,
      "ĠSurely": 5829,
      "Ġdazz": 5830,
      "Ġabandoned": 5831,
      "Ġpuzzled": 5832,
      "ĠHorntail": 5833,
      "Ġcellar": 5834,
      "Ġswiftly": 5835,
      "Ġillegal": 5836,
      "Ġexplanation": 5837,
      "Ġslimy": 5838,
      "Ġparcel": 5839,
      "Ġdemonstr": 5840,
      "Ġlantern": 5841,
      "Ġumbrell": 5842,
      "ball": 5843,
      "coming": 5844,
      "ex": 5845,
      "iest": 5846,
      "uit": 5847,
      "upp": 5848,
      "wood": 5849,
      "Ġwre": 5850,
      "Ġtheory": 5851,
      "Ġhy": 5852,
      "edly": 5853,
      "itated": 5854,
      "Ġcook": 5855,
      "asures": 5856,
      "Ġdaring": 5857,
      "Ġmal": 5858,
      "Ġmixt": 5859,
      "Ġlugg": 5860,
      "Ġpel": 5861,
      "Ġinqu": 5862,
      "Ġyel": 5863,
      "omes": 5864,
      "Ġstumbled": 5865,
      "ĠWond": 5866,
      "ĠRidd": 5867,
      "stone": 5868,
      "ĠBook": 5869,
      "Ġshimmering": 5870,
      "Ġshrilly": 5871,
      "Ġmere": 5872,
      "Ġshelf": 5873,
      "Ġsoot": 5874,
      "ĠOoo": 5875,
      "Ġaback": 5876,
      "ousy": 5877,
      "Ġpoking": 5878,
      "Ġchim": 5879,
      "ĠEl": 5880,
      "Ġspy": 5881,
      "Ġquarter": 5882,
      "Ġblur": 5883,
      "Ġblasted": 5884,
      "estig": 5885,
      "Ġplant": 5886,
      "angu": 5887,
      "idded": 5888,
      "fty": 5889,
      "Ġdiss": 5890,
      "Ġsecrets": 5891,
      "uckles": 5892,
      "Ġfloors": 5893,
      "Ġstranger": 5894,
      "Ġamused": 5895,
      "ĠJoh": 5896,
      "Ġcheering": 5897,
      "ĠDeathly": 5898,
      "Ġinstrum": 5899,
      "Ġrecently": 5900,
      "Ġsweater": 5901,
      "Ġcorners": 5902,
      "Ġpotato": 5903,
      "Ġplayer": 5904,
      "ĠAuntie": 5905,
      "Ġpatting": 5906,
      "Ġpersonal": 5907,
      "Ġinformed": 5908,
      "Ġhumans": 5909,
      "Ġwinged": 5910,
      "ĠLeave": 5911,
      "Ġtips": 5912,
      "Ġnarrowed": 5913,
      "Ġpromised": 5914,
      "Ġargue": 5915,
      "Ġarguing": 5916,
      "Ġspirits": 5917,
      "Ġbewitched": 5918,
      "Ġzooming": 5919,
      "Ġsatisfaction": 5920,
      "Ġcourt": 5921,
      "Ġcomfortable": 5922,
      "Ġcards": 5923,
      "Ġbirds": 5924,
      "Ġgiggling": 5925,
      "Ġincredulously": 5926,
      "Ġgulped": 5927,
      "Ġpouch": 5928,
      "Ġfeathers": 5929,
      "ĠSquib": 5930,
      "Ġdescended": 5931,
      "Ġreappeared": 5932,
      "Ġkissing": 5933,
      "Ġastonished": 5934,
      "Ġhoarsely": 5935,
      "Ġcautiously": 5936,
      "ascin": 5937,
      "Ġbreeze": 5938,
      "ĠHalloween": 5939,
      "Ġmagnificent": 5940,
      "ĠPOTTER": 5941,
      "Ġobsess": 5942,
      "Ġmagazine": 5943,
      "Ġdaresay": 5944,
      "Ġluggage": 5945,
      "ĠJohn": 5946,
      "AM": 5947,
      "BLE": 5948,
      "bed": 5949,
      "kins": 5950,
      "nis": 5951,
      "Ġtast": 5952,
      "Ġtrait": 5953,
      "Ġtakes": 5954,
      "Ġsou": 5955,
      "Ġhug": 5956,
      "Ġhint": 5957,
      "Ġbark": 5958,
      "Ġbub": 5959,
      "ĠHaven": 5960,
      "ĠHoney": 5961,
      "atus": 5962,
      "ises": 5963,
      "Ġcars": 5964,
      "ases": 5965,
      "asks": 5966,
      "Ġmail": 5967,
      "anna": 5968,
      "Ġsand": 5969,
      "Ġsake": 5970,
      "omy": 5971,
      "Ġbeam": 5972,
      "Ġstal": 5973,
      "Ġstore": 5974,
      "irm": 5975,
      "ĠWon": 5976,
      "ĠWiz": 5977,
      "ĠDON": 5978,
      "Ġreb": 5979,
      "Ġreasons": 5980,
      "agging": 5981,
      "agini": 5982,
      "kered": 5983,
      "amot": 5984,
      "Ġshuffled": 5985,
      "Ġoutline": 5986,
      "Ġrad": 5987,
      "ĠLaw": 5988,
      "ĠNagini": 5989,
      "Ġgogg": 5990,
      "Ġwheeled": 5991,
      "Ġvibr": 5992,
      "istak": 5993,
      "Ġteac": 5994,
      "Ġchoose": 5995,
      "Ġspite": 5996,
      "Ġconfess": 5997,
      "Ġplunged": 5998,
      "Ġclapping": 5999,
      "ogging": 6000,
      "Ġglowing": 6001,
      "Ġgruff": 6002,
      "Ġfluttered": 6003,
      "Ġswarm": 6004,
      "Ġdisp": 6005,
      "Ġdispl": 6006,
      "Ġbrass": 6007,
      "ltongue": 6008,
      "Ġproved": 6009,
      "Ġhost": 6010,
      "Ġstrained": 6011,
      "Ġmustn": 6012,
      "Ġentering": 6013,
      "Ġcrit": 6014,
      "ĠStunned": 6015,
      "iffere": 6016,
      "Ġnightmare": 6017,
      "appy": 6018,
      "Ġrealizing": 6019,
      "Ġsquinted": 6020,
      "Ġrecent": 6021,
      "vision": 6022,
      "ĠEverybody": 6023,
      "Ġbursting": 6024,
      "Ġrepro": 6025,
      "Ġmidst": 6026,
      "Ġclimbing": 6027,
      "Ġattacking": 6028,
      "asket": 6029,
      "Ġintently": 6030,
      "ĠGoblet": 6031,
      "Ġflatt": 6032,
      "ĠFloo": 6033,
      "Ġlovely": 6034,
      "Ġcounting": 6035,
      "ĠBludgers": 6036,
      "engamot": 6037,
      "Ġsuffered": 6038,
      "Ġcommunity": 6039,
      "Ġconcentrate": 6040,
      "Ġundoubtedly": 6041,
      "Ġslightest": 6042,
      "Ġdefend": 6043,
      "Ġgulp": 6044,
      "Ġoccasionally": 6045,
      "Ġscratching": 6046,
      "Ġbrandishing": 6047,
      "Ġpoured": 6048,
      "Ġdimly": 6049,
      "ĠWHAT": 6050,
      "ĠMacmill": 6051,
      "Ġdeliber": 6052,
      "Ġawkwardly": 6053,
      "Ġunlikely": 6054,
      "Ġdrowned": 6055,
      "ĠAdv": 6056,
      "Ġrisen": 6057,
      "Ġschedule": 6058,
      "ĠOwlery": 6059,
      "Ġfetch": 6060,
      "Ġunmistak": 6061,
      "Ġfaithful": 6062,
      "ĠParseltongue": 6063,
      "Ġorphan": 6064,
      "Ġarchway": 6065,
      "Ġunknown": 6066,
      "ĠWizengamot": 6067,
      "ĠMacmillan": 6068,
      "DOR": 6069,
      "FF": 6070,
      "IST": 6071,
      "ailed": 6072,
      "cement": 6073,
      "duc": 6074,
      "hip": 6075,
      "pre": 6076,
      "rat": 6077,
      "Ġsought": 6078,
      "recy": 6079,
      "Ġbare": 6080,
      "Ġbunch": 6081,
      "ĠHold": 6082,
      "Ġobey": 6083,
      "idy": 6084,
      "Ġheat": 6085,
      "Ġdive": 6086,
      "ences": 6087,
      "Ġmil": 6088,
      "Ġlops": 6089,
      "Ġpity": 6090,
      "entions": 6091,
      "ades": 6092,
      "ags": 6093,
      "Ġseize": 6094,
      "amel": 6095,
      "ĠBane": 6096,
      "ĠBrit": 6097,
      "Ġshaken": 6098,
      "Ġshattered": 6099,
      "Ġshapes": 6100,
      "Ġoutta": 6101,
      "ĠFo": 6102,
      "ĠFOR": 6103,
      "Ġfeared": 6104,
      "Ġvig": 6105,
      "ourish": 6106,
      "Ġnod": 6107,
      "ulars": 6108,
      "erson": 6109,
      "Ġchicken": 6110,
      "Ġquarters": 6111,
      "Ġblurred": 6112,
      "Ġworrying": 6113,
      "Ġslug": 6114,
      "Ġwandering": 6115,
      "Ġtwitched": 6116,
      "angle": 6117,
      "Ġglinting": 6118,
      "Ġflashing": 6119,
      "ĠMalfoys": 6120,
      "Ġspeeding": 6121,
      "Ġremove": 6122,
      "uffling": 6123,
      "Ġdrinking": 6124,
      "Ġcrim": 6125,
      "Ġmeanwhile": 6126,
      "bell": 6127,
      "Ġsteak": 6128,
      "Ġeyeing": 6129,
      "Ġinstinct": 6130,
      "Ġdrops": 6131,
      "Ġslept": 6132,
      "ronomy": 6133,
      "ivid": 6134,
      "Ġmarked": 6135,
      "Ġaccount": 6136,
      "Ġinsisted": 6137,
      "oculars": 6138,
      "Ġuncon": 6139,
      "Ġveil": 6140,
      "Ġregular": 6141,
      "ountain": 6142,
      "Ġattacks": 6143,
      "volo": 6144,
      "Ġgripping": 6145,
      "Ġstretch": 6146,
      "Ġheadmistress": 6147,
      "Ġstruggle": 6148,
      "ĠFlamel": 6149,
      "Ġsubjects": 6150,
      "dukes": 6151,
      "Ġordered": 6152,
      "Ġbanging": 6153,
      "Ġmoonlight": 6154,
      "Ġhonest": 6155,
      "Ġhonestly": 6156,
      "Ġrevealed": 6157,
      "Ġgraveyard": 6158,
      "coat": 6159,
      "Ġphotographs": 6160,
      "Ġamazement": 6161,
      "Ġsurvived": 6162,
      "Ġblonde": 6163,
      "Ġcasual": 6164,
      "Ġuncomfortably": 6165,
      "Ġfeeb": 6166,
      "Ġtracks": 6167,
      "Ġtelevision": 6168,
      "Ġbroadly": 6169,
      "Ġswaying": 6170,
      "Ġjudges": 6171,
      "Ġindicated": 6172,
      "Ġpredict": 6173,
      "Ġsavage": 6174,
      "books": 6175,
      "Ġenchantments": 6176,
      "Ġdisbelief": 6177,
      "Ġblazing": 6178,
      "ĠAstronomy": 6179,
      "ĠFriday": 6180,
      "ĠHoneydukes": 6181,
      "ĠAdvanced": 6182,
      "Ġlopsided": 6183,
      "ael": 6184,
      "aves": 6185,
      "cup": 6186,
      "land": 6187,
      "taker": 6188,
      "Ġave": 6189,
      "inc": 6190,
      "Ġsen": 6191,
      "Ġwinning": 6192,
      "Ġbill": 6193,
      "Ġbind": 6194,
      "Ġcong": 6195,
      "ora": 6196,
      "Ġming": 6197,
      "Ġlung": 6198,
      "Ġloyal": 6199,
      "Ġthumb": 6200,
      "Ġpul": 6201,
      "Ġpig": 6202,
      "Ġprow": 6203,
      "Ġpati": 6204,
      "Ġpacing": 6205,
      "Ġhab": 6206,
      "Ġnatural": 6207,
      "ĠIT": 6208,
      "Ġsaving": 6209,
      "acon": 6210,
      "acingly": 6211,
      "ĠTer": 6212,
      "icial": 6213,
      "irk": 6214,
      "Ġrelu": 6215,
      "keeper": 6216,
      "Ġshone": 6217,
      "Ġshabby": 6218,
      "people": 6219,
      "ĠCad": 6220,
      "Ġroof": 6221,
      "Ġjaw": 6222,
      "Ġgoin": 6223,
      "ustered": 6224,
      "Ġwhoever": 6225,
      "Ġleaping": 6226,
      "inkled": 6227,
      "ffee": 6228,
      "Ġpopping": 6229,
      "Ġchilly": 6230,
      "Ġunn": 6231,
      "Ġhandful": 6232,
      "oping": 6233,
      "Ġscroll": 6234,
      "Ġslipp": 6235,
      "bbles": 6236,
      "ounded": 6237,
      "ichael": 6238,
      "Ġswimming": 6239,
      "avement": 6240,
      "thin": 6241,
      "Ġknee": 6242,
      "Ġkneeling": 6243,
      "Ġbothered": 6244,
      "Ġcontained": 6245,
      "Ġfloated": 6246,
      "Ġcost": 6247,
      "Ġcovering": 6248,
      "Ġdram": 6249,
      "Ġcheers": 6250,
      "Ġlightly": 6251,
      "Ġcursed": 6252,
      "Ġminds": 6253,
      "Ġpleasantly": 6254,
      "Ġcaretaker": 6255,
      "ĠArith": 6256,
      "Ġobser": 6257,
      "Ġbadges": 6258,
      "Ġindiffere": 6259,
      "Ġpossibility": 6260,
      "Ġguilt": 6261,
      "Ġrig": 6262,
      "ĠExtend": 6263,
      "mancy": 6264,
      "Ġinspect": 6265,
      "Ġvanish": 6266,
      "abbing": 6267,
      "orkins": 6268,
      "Ġexception": 6269,
      "ĠIsn": 6270,
      "Ġlearning": 6271,
      "ĠMarvolo": 6272,
      "Ġpunct": 6273,
      "Ġguarding": 6274,
      "Ġabsolutely": 6275,
      "LEY": 6276,
      "Ġurge": 6277,
      "Ġconcentrating": 6278,
      "Ġjerk": 6279,
      "Ġmusic": 6280,
      "ĠAmos": 6281,
      "Ġreflection": 6282,
      "Ġgrandm": 6283,
      "Ġpopular": 6284,
      "Ġshudder": 6285,
      "Ġthestrals": 6286,
      "Ġprisoners": 6287,
      "Ġscribbled": 6288,
      "Ġankles": 6289,
      "Ġutterly": 6290,
      "Ġsternly": 6291,
      "Ġgift": 6292,
      "Ġskrewts": 6293,
      "Ġcontempt": 6294,
      "Ġbeetle": 6295,
      "Ġextinguished": 6296,
      "Ġumbrella": 6297,
      "Ġmixture": 6298,
      "ĠJohnson": 6299,
      "Ġgruffly": 6300,
      "Ġreluct": 6301,
      "ĠArithmancy": 6302,
      "AL": 6303,
      "ILL": 6304,
      "TS": 6305,
      "away": 6306,
      "break": 6307,
      "iarm": 6308,
      "ners": 6309,
      "pz": 6310,
      "uous": 6311,
      "wed": 6312,
      "Ġtugging": 6313,
      "hem": 6314,
      "Ġsummon": 6315,
      "Ġwrest": 6316,
      "Ġhouses": 6317,
      "eration": 6318,
      "orter": 6319,
      "Ġmort": 6320,
      "Ġlimp": 6321,
      "Ġgaped": 6322,
      "Ġinh": 6323,
      "anking": 6324,
      "Ġnin": 6325,
      "ĠIrel": 6326,
      "Ġsal": 6327,
      "omping": 6328,
      "Ġet": 6329,
      "iment": 6330,
      "Ġstack": 6331,
      "ĠTre": 6332,
      "ics": 6333,
      "ickered": 6334,
      "ĠSH": 6335,
      "Ġwearily": 6336,
      "Ġate": 6337,
      "Ġforbidden": 6338,
      "Ġsele": 6339,
      "ĠHepz": 6340,
      "Ġkissed": 6341,
      "ĠCarrow": 6342,
      "Ġras": 6343,
      "Ġrot": 6344,
      "Ġrim": 6345,
      "ilar": 6346,
      "antage": 6347,
      "Ġagg": 6348,
      "Ġteles": 6349,
      "Ġsuck": 6350,
      "iggered": 6351,
      "nair": 6352,
      "Ġscattered": 6353,
      "Ġclicking": 6354,
      "Ġslide": 6355,
      "Ġorgan": 6356,
      "ĠUse": 6357,
      "Ġflask": 6358,
      "Ġfluttering": 6359,
      "Ġswam": 6360,
      "Ġswoll": 6361,
      "Ġunderage": 6362,
      "Ġunderground": 6363,
      "tee": 6364,
      "Ġremark": 6365,
      "Ġbrick": 6366,
      "Ġacted": 6367,
      "Ġpron": 6368,
      "Ġgoodness": 6369,
      "ĠInside": 6370,
      "ĠJorkins": 6371,
      "Ġcrate": 6372,
      "Ġcrashed": 6373,
      "Ġowners": 6374,
      "Ġcurly": 6375,
      "ĠAnim": 6376,
      "Ġfirelight": 6377,
      "Ġbegin": 6378,
      "ibah": 6379,
      "Ġincant": 6380,
      "Ġsweets": 6381,
      "Ġawoke": 6382,
      "Ġstraightening": 6383,
      "ĠKnight": 6384,
      "Ġdefens": 6385,
      "ĠExpe": 6386,
      "ĠExpell": 6387,
      "ĠSneak": 6388,
      "Ġstuffing": 6389,
      "Ġfleet": 6390,
      "Ġmeetings": 6391,
      "Ġaccording": 6392,
      "Ġpatted": 6393,
      "Ġhurriedly": 6394,
      "auldrons": 6395,
      "anning": 6396,
      "Ġintr": 6397,
      "ĠAnything": 6398,
      "Ġassured": 6399,
      "mittee": 6400,
      "Ġblankets": 6401,
      "Ġadding": 6402,
      "ĠFluffy": 6403,
      "Ġfrowned": 6404,
      "Ġavoided": 6405,
      "Ġnarrowly": 6406,
      "Ġposts": 6407,
      "Ġbangs": 6408,
      "ĠNevertheless": 6409,
      "Ġsneaking": 6410,
      "Ġtrolley": 6411,
      "Ġsparkling": 6412,
      "Ġconcentration": 6413,
      "Ġamazed": 6414,
      "Ġrespond": 6415,
      "ĠDisapparate": 6416,
      "Ġpunishment": 6417,
      "Ġdrifting": 6418,
      "ĠMacnair": 6419,
      "chers": 6420,
      "Ġyawned": 6421,
      "Ġgreeted": 6422,
      "Ġcoward": 6423,
      "Ġgrateful": 6424,
      "Ġdisturbed": 6425,
      "Ġembarrassed": 6426,
      "ĠChasers": 6427,
      "Ġimprove": 6428,
      "ĠBulgarian": 6429,
      "Ġbigger": 6430,
      "Ġreckons": 6431,
      "ĠOffice": 6432,
      "Ġnecessary": 6433,
      "Ġpupils": 6434,
      "Ġexasperated": 6435,
      "Ġbeckoned": 6436,
      "ĠSorcerer": 6437,
      "Ġimprison": 6438,
      "Ġridiculous": 6439,
      "Ġorphanage": 6440,
      "ratul": 6441,
      "Ġgrandmother": 6442,
      "ĠIreland": 6443,
      "ĠHepzibah": 6444,
      "Ġswollen": 6445,
      "ĠExpelliarm": 6446,
      "ACK": 6447,
      "OP": 6448,
      "UN": 6449,
      "ais": 6450,
      "ely": 6451,
      "iosity": 6452,
      "jo": 6453,
      "ney": 6454,
      "ram": 6455,
      "rish": 6456,
      "tory": 6457,
      "uced": 6458,
      "Ġtucked": 6459,
      "Ġaward": 6460,
      "Ġhugged": 6461,
      "Ġbars": 6462,
      "Ġbasket": 6463,
      "ĠHanna": 6464,
      "Ġfish": 6465,
      "Ġfascin": 6466,
      "ites": 6467,
      "Ġcreaked": 6468,
      "Ġmor": 6469,
      "Ġmale": 6470,
      "Ġpalm": 6471,
      "ĠIrish": 6472,
      "Ġsaus": 6473,
      "Ġbeaded": 6474,
      "Ġevent": 6475,
      "Ġhistory": 6476,
      "Ġstreaked": 6477,
      "icted": 6478,
      "ĠSick": 6479,
      "ĠSept": 6480,
      "ĠSummon": 6481,
      "Ġwhirled": 6482,
      "ĠMichael": 6483,
      "rop": 6484,
      "ĠDav": 6485,
      "acking": 6486,
      "pecially": 6487,
      "andel": 6488,
      "Ġruck": 6489,
      "Ġrushing": 6490,
      "Ġrumbling": 6491,
      "toe": 6492,
      "Ġfever": 6493,
      "Ġjudge": 6494,
      "Ġgoble": 6495,
      "Ġsole": 6496,
      "ulous": 6497,
      "Ġpoked": 6498,
      "Ġqual": 6499,
      "Ġcanv": 6500,
      "Ġarea": 6501,
      "Ġseek": 6502,
      "Ġheadquarters": 6503,
      "bborn": 6504,
      "Ġflickered": 6505,
      "Ġswer": 6506,
      "ĠChang": 6507,
      "Ġbrut": 6508,
      "Ġmomentarily": 6509,
      "Ġsecure": 6510,
      "Ġsniggered": 6511,
      "Ġcoins": 6512,
      "ĠBeaters": 6513,
      "Ġowned": 6514,
      "Ġgives": 6515,
      "Ġcuriosity": 6516,
      "Ġbegun": 6517,
      "ampire": 6518,
      "Ġsnap": 6519,
      "Ġcarved": 6520,
      "ĠErrol": 6521,
      "Ġmovements": 6522,
      "Ġunderstanding": 6523,
      "atives": 6524,
      "Ġteams": 6525,
      "ĠHorace": 6526,
      "Ġconfident": 6527,
      "Ġprotected": 6528,
      "Ġdeaths": 6529,
      "Ġtouching": 6530,
      "Ġinvestig": 6531,
      "Ġdiscover": 6532,
      "Ġbowler": 6533,
      "Ġrats": 6534,
      "Ġfreed": 6535,
      "ĠMarch": 6536,
      "Ġshoved": 6537,
      "Ġaddress": 6538,
      "Ġfrog": 6539,
      "Ġgloves": 6540,
      "Ġabsent": 6541,
      "Ġadvanced": 6542,
      "Ġstaffroom": 6543,
      "Ġattempts": 6544,
      "ĠDelumin": 6545,
      "Ġpaying": 6546,
      "Ġjinxes": 6547,
      "Ġblocking": 6548,
      "Ġmerpeople": 6549,
      "Ġstrike": 6550,
      "Ġbenches": 6551,
      "Ġyells": 6552,
      "Ġstirred": 6553,
      "Ġprecisely": 6554,
      "Ġdespite": 6555,
      "ĠAccio": 6556,
      "Ġtorture": 6557,
      "Ġtortured": 6558,
      "Ġvalu": 6559,
      "Ġviolently": 6560,
      "ĠFelicis": 6561,
      "Ġexperience": 6562,
      "Ġneatly": 6563,
      "Ġchuckled": 6564,
      "Ġstubborn": 6565,
      "Ġbushy": 6566,
      "ĠDecree": 6567,
      "Ġwithdrew": 6568,
      "Ġimpressive": 6569,
      "Ġalleyway": 6570,
      "Ġcruel": 6571,
      "Ġhuddled": 6572,
      "ĠStupef": 6573,
      "ĠHeadmaster": 6574,
      "Ġfeebly": 6575,
      "ĠExtendable": 6576,
      "ĠExpecto": 6577,
      "ĠSneakos": 6578,
      "ĠExpelliarmus": 6579,
      "ĠHannah": 6580,
      "ĠSeptember": 6581,
      "ĠDavies": 6582,
      "Ġgoblets": 6583,
      "EM": 6584,
      "com": 6585,
      "cross": 6586,
      "hand": 6587,
      "lted": 6588,
      "site": 6589,
      "vad": 6590,
      "water": 6591,
      "wolves": 6592,
      "yn": 6593,
      "Ġtit": 6594,
      "Ġsin": 6595,
      "Ġsarc": 6596,
      "Ġhar": 6597,
      "Ġhic": 6598,
      "era": 6599,
      "eral": 6600,
      "Ġbarm": 6601,
      "Ġboring": 6602,
      "Ġbouncing": 6603,
      "athed": 6604,
      "Ġcream": 6605,
      "Ġcakes": 6606,
      "orks": 6607,
      "Ġdared": 6608,
      "Ġmold": 6609,
      "Ġmuddy": 6610,
      "Ġpinned": 6611,
      "Ġpipe": 6612,
      "Ġgrief": 6613,
      "Ġniff": 6614,
      "ĠTod": 6615,
      "icol": 6616,
      "icated": 6617,
      "ĠSit": 6618,
      "ĠWE": 6619,
      "ĠDet": 6620,
      "outh": 6621,
      "Ġredd": 6622,
      "urry": 6623,
      "ĠAug": 6624,
      "rigg": 6625,
      "Ġseren": 6626,
      "ĠHelp": 6627,
      "umst": 6628,
      "ĠBode": 6629,
      "gend": 6630,
      "Ġwerewolves": 6631,
      "Ġmead": 6632,
      "Ġknuckles": 6633,
      "Ġringing": 6634,
      "Ġragged": 6635,
      "Ġsobs": 6636,
      "Ġagony": 6637,
      "raft": 6638,
      "Ġdevelo": 6639,
      "ĠWhomping": 6640,
      "Ġtearing": 6641,
      "Ġpod": 6642,
      "Ġchur": 6643,
      "Ġchill": 6644,
      "Ġchapter": 6645,
      "Ġofficial": 6646,
      "ĠProbably": 6647,
      "Ġworn": 6648,
      "Ġplump": 6649,
      "Ġclatter": 6650,
      "Ġclaim": 6651,
      "Ġcommit": 6652,
      "Ġflown": 6653,
      "Ġflicked": 6654,
      "Ġlonging": 6655,
      "ĠChosen": 6656,
      "ucking": 6657,
      "berts": 6658,
      "Ġstring": 6659,
      "ĠQuite": 6660,
      "Ġblackened": 6661,
      "Ġperi": 6662,
      "isters": 6663,
      "Ġpleasant": 6664,
      "Ġcareer": 6665,
      "liv": 6666,
      "Ġrestr": 6667,
      "Ġinclin": 6668,
      "Ġreco": 6669,
      "Ġdrove": 6670,
      "racting": 6671,
      "Ġlowering": 6672,
      "ĠExcuse": 6673,
      "Ġintended": 6674,
      "Ġseries": 6675,
      "Ġconfidence": 6676,
      "Ġuncont": 6677,
      "Ġsprinting": 6678,
      "oony": 6679,
      "Ġcenturies": 6680,
      "Ġhangings": 6681,
      "Ġinvited": 6682,
      "Ġbattered": 6683,
      "Ġtempor": 6684,
      "ĠLeg": 6685,
      "ĠSecret": 6686,
      "Ġprompt": 6687,
      "Ġadvantage": 6688,
      "Ġannounced": 6689,
      "Ġdepart": 6690,
      "Ġdepartment": 6691,
      "Ġsneering": 6692,
      "Ġtrolls": 6693,
      "Ġpermitted": 6694,
      "Ġgamekeeper": 6695,
      "ANG": 6696,
      "Ġinjuries": 6697,
      "Ġfuneral": 6698,
      "Ġadmitted": 6699,
      "Ġcourage": 6700,
      "Ġdisappointment": 6701,
      "Ġgloomy": 6702,
      "Ġproudly": 6703,
      "Ġanti": 6704,
      "Ġblinding": 6705,
      "Ġmountains": 6706,
      "ĠFeeling": 6707,
      "Ġcrouching": 6708,
      "Ġunwra": 6709,
      "Ġdespair": 6710,
      "Ġpreferred": 6711,
      "Ġseparated": 6712,
      "Ġcampsite": 6713,
      "Ġgrasped": 6714,
      "Ġthestral": 6715,
      "Ġautom": 6716,
      "ĠRoberts": 6717,
      "ĠCommittee": 6718,
      "Ġfancy": 6719,
      "Ġdeafening": 6720,
      "Ġsubstance": 6721,
      "Ġgrindyl": 6722,
      "Ġbetrayed": 6723,
      "Ġmounted": 6724,
      "door": 6725,
      "ĠMalkin": 6726,
      "Ġretrieve": 6727,
      "Ġtoppled": 6728,
      "Ġvenom": 6729,
      "Ġwreck": 6730,
      "Ġmingled": 6731,
      "ĠAnimag": 6732,
      "ĠDeluminator": 6733,
      "ĠToday": 6734,
      "ĠAugust": 6735,
      "UD": 6736,
      "fl": 6737,
      "piece": 6738,
      "sack": 6739,
      "uish": 6740,
      "Ġze": 6741,
      "Ġting": 6742,
      "Ġtim": 6743,
      "Ġtie": 6744,
      "edalus": 6745,
      "oning": 6746,
      "Ġbounced": 6747,
      "ĠHa": 6748,
      "ĠHand": 6749,
      "ĠHmm": 6750,
      "Ġfence": 6751,
      "Ġfountain": 6752,
      "Ġdully": 6753,
      "eness": 6754,
      "Ġmant": 6755,
      "Ġmater": 6756,
      "Ġmental": 6757,
      "Ġlone": 6758,
      "Ġlaun": 6759,
      "Ġlangu": 6760,
      "Ġthief": 6761,
      "Ġpausing": 6762,
      "Ġpavement": 6763,
      "Ġgir": 6764,
      "omb": 6765,
      "Ġeer": 6766,
      "Ġelder": 6767,
      "ĠMand": 6768,
      "ĠDement": 6769,
      "ĠDedalus": 6770,
      "ential": 6771,
      "ĠRook": 6772,
      "ĠRest": 6773,
      "ĠAT": 6774,
      "ĠBel": 6775,
      "ards": 6776,
      "Ġkick": 6777,
      "ĠGl": 6778,
      "ĠGold": 6779,
      "Ġrare": 6780,
      "Ġjug": 6781,
      "Ġjolt": 6782,
      "Ġoffe": 6783,
      "Ġspilled": 6784,
      "Ġunh": 6785,
      "Ġunfortunately": 6786,
      "ĠVan": 6787,
      "Ġcliff": 6788,
      "Ġorn": 6789,
      "Ġcomb": 6790,
      "Ġtwitching": 6791,
      "Ġtwinkling": 6792,
      "Ġflushed": 6793,
      "Ġswore": 6794,
      "Ġens": 6795,
      "Ġundert": 6796,
      "Ġspending": 6797,
      "Ġpride": 6798,
      "ucky": 6799,
      "Ġamusing": 6800,
      "Ġgreater": 6801,
      "Ġcleaning": 6802,
      "Ġjoking": 6803,
      "Ġsteep": 6804,
      "Ġfriendship": 6805,
      "Ġhopeful": 6806,
      "Ġwatery": 6807,
      "Ġdirected": 6808,
      "Ġinsist": 6809,
      "Ġpatron": 6810,
      "locked": 6811,
      "Ġsuspect": 6812,
      "ĠAnyone": 6813,
      "Ġconscious": 6814,
      "Ġeagle": 6815,
      "Ġghostly": 6816,
      "Ġtaller": 6817,
      "Ġdisgr": 6818,
      "Ġpolished": 6819,
      "Ġpolitely": 6820,
      "Ġcircumst": 6821,
      "Ġdeparted": 6822,
      "Ġcheerfully": 6823,
      "Ġsuffering": 6824,
      "Ġcharms": 6825,
      "Ġplanned": 6826,
      "ĠCouldn": 6827,
      "Ġincredible": 6828,
      "Ġgeneral": 6829,
      "Ġfairly": 6830,
      "Ġmaintain": 6831,
      "Ġdueling": 6832,
      "Ġdevoted": 6833,
      "Ġunusually": 6834,
      "Ġthundering": 6835,
      "Ġviolent": 6836,
      "Ġglimpsed": 6837,
      "Ġstiffly": 6838,
      "Ġresembled": 6839,
      "Ġanimal": 6840,
      "Ġanimals": 6841,
      "Ġtotal": 6842,
      "ĠChaser": 6843,
      "Ġtransparent": 6844,
      "Ġintroduce": 6845,
      "Ġsunken": 6846,
      "ĠCruciatus": 6847,
      "Ġtrapdoor": 6848,
      "Ġlazily": 6849,
      "Ġcurrently": 6850,
      "Ġdarting": 6851,
      "ĠHealer": 6852,
      "Ġmilk": 6853,
      "Ġrucksack": 6854,
      "Ġcanvas": 6855,
      "Ġvaluable": 6856,
      "Ġuncontroll": 6857,
      "Ġpromptly": 6858,
      "ĠRookwood": 6859,
      "GIC": 6860,
      "IL": 6861,
      "IR": 6862,
      "bal": 6863,
      "craft": 6864,
      "go": 6865,
      "glass": 6866,
      "ma": 6867,
      "mosp": 6868,
      "ware": 6869,
      "xed": 6870,
      "yll": 6871,
      "Ġtugged": 6872,
      "Ġtapping": 6873,
      "Ġah": 6874,
      "Ġaud": 6875,
      "Ġaching": 6876,
      "Ġwrigg": 6877,
      "ouet": 6878,
      "erted": 6879,
      "arling": 6880,
      "Ġbund": 6881,
      "Ġbowing": 6882,
      "Ġbike": 6883,
      "Ġbacon": 6884,
      "ĠHar": 6885,
      "ats": 6886,
      "idents": 6887,
      "idently": 6888,
      "ania": 6889,
      "lebolt": 6890,
      "Ġsacked": 6891,
      "acles": 6892,
      "ĠToo": 6893,
      "ĠSund": 6894,
      "ĠMom": 6895,
      "ĠDirk": 6896,
      "Ġrequire": 6897,
      "Ġrejo": 6898,
      "alk": 6899,
      "ĠAvad": 6900,
      "ĠPut": 6901,
      "Ġantic": 6902,
      "ĠRonan": 6903,
      "ĠBack": 6904,
      "Ġshaw": 6905,
      "Ġshows": 6906,
      "Ġshrive": 6907,
      "ements": 6908,
      "ĠGu": 6909,
      "unched": 6910,
      "Ġknight": 6911,
      "Ġbutton": 6912,
      "Ġruddy": 6913,
      "ify": 6914,
      "Ġgovern": 6915,
      "ĠOther": 6916,
      "ĠOmn": 6917,
      "Ġlegend": 6918,
      "Ġability": 6919,
      "Ġnoble": 6920,
      "istered": 6921,
      "ctor": 6922,
      "Ġchandel": 6923,
      "Ġblown": 6924,
      "Ġscut": 6925,
      "Ġscore": 6926,
      "Ġscales": 6927,
      "ĠThick": 6928,
      "ĠThrough": 6929,
      "ogan": 6930,
      "Ġsmart": 6931,
      "Ġarrog": 6932,
      "Ġfluffy": 6933,
      "abouts": 6934,
      "Ġpearly": 6935,
      "Ġwhereabouts": 6936,
      "Ġload": 6937,
      "Ġbru": 6938,
      "Ġnevertheless": 6939,
      "uffs": 6940,
      "Ġhoisted": 6941,
      "Ġattitude": 6942,
      "Ġsnout": 6943,
      "Ġsnakes": 6944,
      "Ġemotion": 6945,
      "Ġcrashing": 6946,
      "ĠStay": 6947,
      "Ġhairs": 6948,
      "Ġskill": 6949,
      "Ġskidded": 6950,
      "Ġshouts": 6951,
      "Ġmagically": 6952,
      "Ġdeadly": 6953,
      "Ġswelled": 6954,
      "Ġdetentions": 6955,
      "Ġemptied": 6956,
      "Ġhopelessly": 6957,
      "ĠShh": 6958,
      "ĠShield": 6959,
      "Ġcompared": 6960,
      "ĠReady": 6961,
      "Ġhatred": 6962,
      "Ġinsane": 6963,
      "Ġinterf": 6964,
      "Ġrefusing": 6965,
      "ĠHeads": 6966,
      "Ġprotr": 6967,
      "Ġexplaining": 6968,
      "Ġrepres": 6969,
      "Ġsprout": 6970,
      "Ġapproach": 6971,
      "ĠWizardry": 6972,
      "struck": 6973,
      "Ġpressure": 6974,
      "Ġtorches": 6975,
      "Ġimagining": 6976,
      "Ġdoubted": 6977,
      "Ġfrequ": 6978,
      "Ġfrightening": 6979,
      "Ġhotly": 6980,
      "ĠSecrecy": 6981,
      "Ġsmoot": 6982,
      "Ġshops": 6983,
      "Ġenjoyed": 6984,
      "Ġwarmth": 6985,
      "Ġcommun": 6986,
      "Ġsenses": 6987,
      "Ġsnatching": 6988,
      "ĠWouldn": 6989,
      "Ġconceal": 6990,
      "ĠSquad": 6991,
      "Ġexistence": 6992,
      "Ġurgent": 6993,
      "Ġyawning": 6994,
      "Ġseparate": 6995,
      "Ġscreeched": 6996,
      "Ġexperienced": 6997,
      "Ġflickering": 6998,
      "Ġdismiss": 6999,
      "Ġwidened": 7000,
      "Ġachieved": 7001,
      "Ġdescrib": 7002,
      "Ġneighbors": 7003,
      "ĠShacklebolt": 7004,
      "Ġpudding": 7005,
      "Ġapolog": 7006,
      "Ġenemy": 7007,
      "ĠBaron": 7008,
      "ĠHIM": 7009,
      "Ġdazzling": 7010,
      "ĠWonder": 7011,
      "Ġtaste": 7012,
      "Ġsoup": 7013,
      "Ġbubble": 7014,
      "Ġteacup": 7015,
      "Ġhabit": 7016,
      "ĠCadogan": 7017,
      "Ġrigid": 7018,
      "Ġchurch": 7019,
      "Ġperiod": 7020,
      "ĠAvada": 7021,
      "ĠOmni": 7022,
      "KE": 7023,
      "car": 7024,
      "cut": 7025,
      "hot": 7026,
      "hod": 7027,
      "jar": 7028,
      "jected": 7029,
      "mpt": 7030,
      "vy": 7031,
      "vid": 7032,
      "zo": 7033,
      "zes": 7034,
      "Ġes": 7035,
      "Ġty": 7036,
      "Ġtin": 7037,
      "Ġtents": 7038,
      "Ġtale": 7039,
      "Ġtangled": 7040,
      "Ġajar": 7041,
      "ints": 7042,
      "Ġwoken": 7043,
      "Ġbiz": 7044,
      "Ġbread": 7045,
      "Ġbolt": 7046,
      "Ġbanned": 7047,
      "Ġfem": 7048,
      "ators": 7049,
      "Ġtomb": 7050,
      "Ġtooth": 7051,
      "Ġcust": 7052,
      "Ġcries": 7053,
      "Ġmourn": 7054,
      "Ġlady": 7055,
      "Ġlimb": 7056,
      "Ġlarg": 7057,
      "Ġthumping": 7058,
      "Ġpace": 7059,
      "Ġnorth": 7060,
      "Ġnudged": 7061,
      "acious": 7062,
      "Ġstif": 7063,
      "Ġstooped": 7064,
      "Ġwhim": 7065,
      "Ġwhimp": 7066,
      "ĠWow": 7067,
      "Ġatmosp": 7068,
      "Ġreward": 7069,
      "ĠRes": 7070,
      "rigin": 7071,
      "ĠPol": 7072,
      "chley": 7073,
      "Ġseated": 7074,
      "umos": 7075,
      "ĠBest": 7076,
      "Ġship": 7077,
      "emb": 7078,
      "ĠCont": 7079,
      "indly": 7080,
      "ĠWeird": 7081,
      "ĠNumb": 7082,
      "Ġsob": 7083,
      "Ġbacks": 7084,
      "ĠOuch": 7085,
      "Ġleap": 7086,
      "Ġexec": 7087,
      "cting": 7088,
      "ularly": 7089,
      "Ġteen": 7090,
      "Ġchattering": 7091,
      "ĠEaster": 7092,
      "Ġoffering": 7093,
      "ĠVol": 7094,
      "Ġhandbag": 7095,
      "ieving": 7096,
      "apor": 7097,
      "Ġseeking": 7098,
      "Ġart": 7099,
      "ĠUN": 7100,
      "ption": 7101,
      "Ġflaming": 7102,
      "Ġswooping": 7103,
      "Ġener": 7104,
      "Ġpecul": 7105,
      "Ġdish": 7106,
      "Ġtells": 7107,
      "tended": 7108,
      "Ġbran": 7109,
      "dden": 7110,
      "Ġhovering": 7111,
      "Ġdrunk": 7112,
      "onsense": 7113,
      "rewd": 7114,
      "Ġcurved": 7115,
      "Ġperf": 7116,
      "ips": 7117,
      "Ġskinny": 7118,
      "Ġfires": 7119,
      "Ġfollowers": 7120,
      "Ġresumed": 7121,
      "Ġtrem": 7122,
      "Ġdeepest": 7123,
      "Ġpainted": 7124,
      "Ġswelling": 7125,
      "ĠAlways": 7126,
      "Ġcornered": 7127,
      "erence": 7128,
      "Ġbushes": 7129,
      "Ġarrive": 7130,
      "Ġarriving": 7131,
      "ummy": 7132,
      "Ġcomplex": 7133,
      "Ġstrewn": 7134,
      "Ġvanishing": 7135,
      "Ġkitchens": 7136,
      "ĠBagshot": 7137,
      "Ġearshot": 7138,
      "ĠGoblin": 7139,
      "Ġassume": 7140,
      "Ġvisitors": 7141,
      "ARD": 7142,
      "ĠLev": 7143,
      "Ġimmediate": 7144,
      "Ġsmoking": 7145,
      "ĠImped": 7146,
      "Ġcreep": 7147,
      "Ġcreeping": 7148,
      "Ġforcefully": 7149,
      "Ġpacking": 7150,
      "Ġjeal": 7151,
      "Ġgrabbing": 7152,
      "ĠSometimes": 7153,
      "rington": 7154,
      "ĠBurkes": 7155,
      "Ġafford": 7156,
      "Ġfiery": 7157,
      "Ġcommand": 7158,
      "Ġefforts": 7159,
      "ĠGalleon": 7160,
      "Ġspreading": 7161,
      "Ġcarriages": 7162,
      "ĠAmy": 7163,
      "Ġunpleasantly": 7164,
      "Ġdamn": 7165,
      "Ġsurvive": 7166,
      "Ġgrandfather": 7167,
      "ĠMudbloods": 7168,
      "Ġtriumphant": 7169,
      "Ġearnestly": 7170,
      "Ġrustling": 7171,
      "Ġengine": 7172,
      "Ġissued": 7173,
      "Ġscowled": 7174,
      "Ġflooding": 7175,
      "Ġrequired": 7176,
      "Ġankle": 7177,
      "Ġdistractedly": 7178,
      "ĠBetter": 7179,
      "Ġdisgusting": 7180,
      "Ġimmensely": 7181,
      "Ġfeatures": 7182,
      "ĠMAGIC": 7183,
      "Ġprickling": 7184,
      "Ġcushion": 7185,
      "Ġflowers": 7186,
      "Ġdeny": 7187,
      "Ġretreated": 7188,
      "ĠWarrington": 7189,
      "Ġtwigs": 7190,
      "ĠPadma": 7191,
      "Ġgathering": 7192,
      "Ġencourag": 7193,
      "Ġeyelids": 7194,
      "ĠInferi": 7195,
      "Ġmalic": 7196,
      "Ġsandw": 7197,
      "Ġflattened": 7198,
      "ĠBritain": 7199,
      "Ġhiccup": 7200,
      "Ġbarman": 7201,
      "Ġserenely": 7202,
      "Ġautomatically": 7203,
      "Ġcircumstances": 7204,
      "Ġuncontrollably": 7205,
      "ĠSunday": 7206,
      "Ġchandelier": 7207,
      "Ġespecially": 7208,
      "Ġbizar": 7209,
      "Ġlargest": 7210,
      "Ġatmosphere": 7211,
      "aired": 7212,
      "ew": 7213,
      "fus": 7214,
      "foot": 7215,
      "xy": 7216,
      "Ġrou": 7217,
      "Ġtu": 7218,
      "Ġtar": 7219,
      "Ġais": 7220,
      "Ġsess": 7221,
      "Ġsip": 7222,
      "edav": 7223,
      "Ġbone": 7224,
      "Ġbanged": 7225,
      "ĠHO": 7226,
      "Ġfog": 7227,
      "Ġorigin": 7228,
      "Ġcam": 7229,
      "asked": 7230,
      "Ġheaving": 7231,
      "Ġdug": 7232,
      "Ġlid": 7233,
      "Ġpor": 7234,
      "Ġpiles": 7235,
      "Ġgaping": 7236,
      "anked": 7237,
      "Ġnamed": 7238,
      "Ġnature": 7239,
      "Ġbend": 7240,
      "acter": 7241,
      "acts": 7242,
      "uster": 7243,
      "Ġstock": 7244,
      "Ġstamm": 7245,
      "ether": 7246,
      "irmed": 7247,
      "ĠDen": 7248,
      "ĠDay": 7249,
      "Ġreven": 7250,
      "ĠAp": 7251,
      "ager": 7252,
      "stones": 7253,
      "Ġsell": 7254,
      "ĠBig": 7255,
      "Ġshrewd": 7256,
      "Ġdoe": 7257,
      "ĠGO": 7258,
      "ĠYer": 7259,
      "andom": 7260,
      "Ġrarely": 7261,
      "Ġrandom": 7262,
      "ilim": 7263,
      "ĠLast": 7264,
      "ĠLumos": 7265,
      "Ġfeed": 7266,
      "aky": 7267,
      "ĠNah": 7268,
      "astered": 7269,
      "Ġwhatso": 7270,
      "Ġvom": 7271,
      "lfriend": 7272,
      "ulation": 7273,
      "Ġoverl": 7274,
      "ssy": 7275,
      "Ġchoo": 7276,
      "Ġchasing": 7277,
      "ĠEars": 7278,
      "Ġuses": 7279,
      "Ġunre": 7280,
      "Ġblowing": 7281,
      "arer": 7282,
      "Ġgotta": 7283,
      "Ġscars": 7284,
      "Ġscanned": 7285,
      "Ġmopping": 7286,
      "ĠKedav": 7287,
      "Ġtrusted": 7288,
      "Ġglum": 7289,
      "Ġglowed": 7290,
      "Ġgrace": 7291,
      "Ġgritted": 7292,
      "innet": 7293,
      "Ġclos": 7294,
      "Ġimage": 7295,
      "Ġprocess": 7296,
      "Ġprice": 7297,
      "Ġhooting": 7298,
      "ishment": 7299,
      "Ġfeels": 7300,
      "ĠJune": 7301,
      "hension": 7302,
      "Ġblackboard": 7303,
      "Ġsquashed": 7304,
      "lines": 7305,
      "Ġbobbing": 7306,
      "Ġmouthed": 7307,
      "Ġuntidy": 7308,
      "ricted": 7309,
      "Ġmouths": 7310,
      "Ġforeign": 7311,
      "undered": 7312,
      "Ġstraw": 7313,
      "erer": 7314,
      "Ġanswering": 7315,
      "Ġdefensive": 7316,
      "Ġriver": 7317,
      "Ġcompan": 7318,
      "Ġpersonally": 7319,
      "Ġfreezing": 7320,
      "Ġbuz": 7321,
      "Ġsleepy": 7322,
      "Ġevents": 7323,
      "Ġcollided": 7324,
      "Ġdeserved": 7325,
      "Ġshopping": 7326,
      "Ġshrieking": 7327,
      "Ġaddition": 7328,
      "Ġdrinks": 7329,
      "Ġforgetting": 7330,
      "Ġunaware": 7331,
      "Ġpolite": 7332,
      "Ġelect": 7333,
      "OOOO": 7334,
      "Ġsleek": 7335,
      "Ġsleeves": 7336,
      "iasm": 7337,
      "Ġpureblood": 7338,
      "Ġamazing": 7339,
      "Ġspectacular": 7340,
      "Ġtreated": 7341,
      "Ġcasually": 7342,
      "Ġladen": 7343,
      "Ġladder": 7344,
      "Ġshuddered": 7345,
      "Ġthousands": 7346,
      "Ġenthusiasm": 7347,
      "Ġstormed": 7348,
      "ĠSpinnet": 7349,
      "Ġindicating": 7350,
      "Ġnerves": 7351,
      "Ġambition": 7352,
      "Ġscribbling": 7353,
      "Ġsniffed": 7354,
      "Ġgleefully": 7355,
      "Ġbucket": 7356,
      "Ġfragment": 7357,
      "ĠSilence": 7358,
      "Ġequal": 7359,
      "ĠRufus": 7360,
      "Ġvicious": 7361,
      "ĠWhee": 7362,
      "Ġhammering": 7363,
      "ĠSkrew": 7364,
      "Ġpenetrate": 7365,
      "Ġantidote": 7366,
      "Ġvictims": 7367,
      "Ġdissolved": 7368,
      "ĠDONT": 7369,
      "Ġvigor": 7370,
      "Ġsensed": 7371,
      "Ġlungs": 7372,
      "Ġinhab": 7373,
      "ĠSummoning": 7374,
      "Ġstubbornly": 7375,
      "ĠSneakoscope": 7376,
      "Ġsinister": 7377,
      "ĠLegilim": 7378,
      "Ġmantel": 7379,
      "Ġmaterial": 7380,
      "Ġlaunched": 7381,
      "Ġgirlfriend": 7382,
      "Ġpatronum": 7383,
      "ĠOmnioculars": 7384,
      "Ġpeculiar": 7385,
      "Ġbranch": 7386,
      "Ġwhatsoever": 7387,
      "CE": 7388,
      "DER": 7389,
      "GG": 7390,
      "HER": 7391,
      "PE": 7392,
      "SE": 7393,
      "SLEY": 7394,
      "bike": 7395,
      "gus": 7396,
      "houet": 7397,
      "lor": 7398,
      "sers": 7399,
      "ties": 7400,
      "vor": 7401,
      "viously": 7402,
      "writ": 7403,
      "Ġ3": 7404,
      "Ġtact": 7405,
      "Ġtasks": 7406,
      "inent": 7407,
      "inth": 7408,
      "Ġwinking": 7409,
      "Ġwider": 7410,
      "ouched": 7411,
      "ounts": 7412,
      "Ġhie": 7413,
      "ndra": 7414,
      "ĠHon": 7415,
      "Ġfed": 7416,
      "Ġfading": 7417,
      "Ġcrawled": 7418,
      "Ġcauldrons": 7419,
      "orse": 7420,
      "Ġdais": 7421,
      "Ġmim": 7422,
      "Ġlunged": 7423,
      "Ġparted": 7424,
      "ese": 7425,
      "Ġgit": 7426,
      "Ġinex": 7427,
      "ĠIS": 7428,
      "oms": 7429,
      "Ġbezo": 7430,
      "verell": 7431,
      "ĠTold": 7432,
      "ĠTog": 7433,
      "iches": 7434,
      "ĠSI": 7435,
      "ĠMind": 7436,
      "ĠWant": 7437,
      "ĠWish": 7438,
      "ĠDes": 7439,
      "ĠDipp": 7440,
      "Ġattend": 7441,
      "Ġrein": 7442,
      "urd": 7443,
      "ĠRog": 7444,
      "standing": 7445,
      "rium": 7446,
      "Ġforty": 7447,
      "Ġsealed": 7448,
      "terge": 7449,
      "umn": 7450,
      "allen": 7451,
      "ĠRonald": 7452,
      "ardon": 7453,
      "Ġshirt": 7454,
      "pend": 7455,
      "Ġhers": 7456,
      "Ġfrantic": 7457,
      "ĠCole": 7458,
      "unp": 7459,
      "Ġmeasures": 7460,
      "ĠFort": 7461,
      "Ġruffled": 7462,
      "ĠWelcome": 7463,
      "ĠNaturally": 7464,
      "Ġlivid": 7465,
      "ĠOR": 7466,
      "ĠWhate": 7467,
      "ulsion": 7468,
      "Ġchances": 7469,
      "ĠEnded": 7470,
      "olded": 7471,
      "Ġanythin": 7472,
      "izz": 7473,
      "Ġsphere": 7474,
      "Ġgettin": 7475,
      "Ġslits": 7476,
      "ĠThurs": 7477,
      "Ġwandered": 7478,
      "Ġwandlight": 7479,
      "Ġhowled": 7480,
      "Ġglare": 7481,
      "ĠUr": 7482,
      "Ġmanner": 7483,
      "Ġdarker": 7484,
      "Ġattached": 7485,
      "Ġattract": 7486,
      "ĠJus": 7487,
      "ĠJinx": 7488,
      "Ġwinding": 7489,
      "ĠSturg": 7490,
      "ĠBlast": 7491,
      "ĠBlotts": 7492,
      "Ġfinds": 7493,
      "Ġbiting": 7494,
      "Ġblackness": 7495,
      "ĠUnless": 7496,
      "ĠUnfortunately": 7497,
      "Ġjoining": 7498,
      "Ġboiling": 7499,
      "ĠArry": 7500,
      "Ġmouthful": 7501,
      "Ġbelieves": 7502,
      "Ġgreasy": 7503,
      "ĠGrim": 7504,
      "Ġhourglass": 7505,
      "Ġguests": 7506,
      "Ġmarching": 7507,
      "Ġlots": 7508,
      "Ġawait": 7509,
      "Ġheartily": 7510,
      "Ġgreenish": 7511,
      "Ġanswers": 7512,
      "Ġrip": 7513,
      "Ġripping": 7514,
      "ĠAtrium": 7515,
      "Ġpointless": 7516,
      "Ġinterrog": 7517,
      "Ġpatches": 7518,
      "box": 7519,
      "Ġbuilt": 7520,
      "Ġedges": 7521,
      "Ġrepair": 7522,
      "anne": 7523,
      "Ġruined": 7524,
      "Ġtripped": 7525,
      "ĠSomebody": 7526,
      "Ġstrolled": 7527,
      "Ġinvol": 7528,
      "Ġthrobbing": 7529,
      "orthy": 7530,
      "Ġreasonably": 7531,
      "ĠLeanne": 7532,
      "ĠKendra": 7533,
      "Ġforming": 7534,
      "ĠFlourish": 7535,
      "Ġgroups": 7536,
      "Ġguards": 7537,
      "Ġcreaking": 7538,
      "ĠYOUR": 7539,
      "Ġdiscussion": 7540,
      "Ġpossessed": 7541,
      "ĠPeverell": 7542,
      "Ġcircling": 7543,
      "what": 7544,
      "Ġrevealing": 7545,
      "ĠMerry": 7546,
      "Ġbeaten": 7547,
      "Ġservice": 7548,
      "Ġlawns": 7549,
      "Ġdefeated": 7550,
      "Ġpillows": 7551,
      "Ġscratched": 7552,
      "Ġexchange": 7553,
      "Ġstirring": 7554,
      "Ġbothering": 7555,
      "Ġsmirked": 7556,
      "Ġsneaked": 7557,
      "Ġgesture": 7558,
      "Ġgesturing": 7559,
      "Ġjudging": 7560,
      "Ġreappear": 7561,
      "Ġshifting": 7562,
      "Ġgnome": 7563,
      "Ġscreech": 7564,
      "Ġbustled": 7565,
      "Ġbustling": 7566,
      "Ġbriefly": 7567,
      "Ġissuing": 7568,
      "Ġscowling": 7569,
      "ixty": 7570,
      "Ġwidening": 7571,
      "Ġborrowed": 7572,
      "Ġidentical": 7573,
      "Ġachieve": 7574,
      "Ġwitnessed": 7575,
      "ĠStudents": 7576,
      "Ġcushions": 7577,
      "ĠMagn": 7578,
      "Ġskelet": 7579,
      "Ġpiercing": 7580,
      "Ġoutraged": 7581,
      "Ġrippling": 7582,
      "ĠEnglish": 7583,
      "Ġmotorbike": 7584,
      "Ġhoops": 7585,
      "addock": 7586,
      "Ġauthority": 7587,
      "Ġominous": 7588,
      "Ġsucceeded": 7589,
      "Ġsympat": 7590,
      "grown": 7591,
      "Ġmildly": 7592,
      "Ġshakily": 7593,
      "Ġgrumpily": 7594,
      "Ġlingered": 7595,
      "Ġdeliberately": 7596,
      "Ġunmistakable": 7597,
      "Ġcongratul": 7598,
      "ĠSickles": 7599,
      "ĠDementors": 7600,
      "Ġundertone": 7601,
      "Ġcommunic": 7602,
      "Ġfemale": 7603,
      "Ġwhimpering": 7604,
      "Ġbizarre": 7605,
      "Ġcamera": 7606,
      "ĠDennis": 7607,
      "Ġmantelpiece": 7608,
      "ĠTogether": 7609,
      "ĠDippet": 7610,
      "ĠRoger": 7611,
      "tergeist": 7612,
      "ĠWhatever": 7613,
      "ĠThursday": 7614,
      "ĠSturgis": 7615,
      "RON": 7616,
      "UT": 7617,
      "aust": 7618,
      "banks": 7619,
      "ek": 7620,
      "hood": 7621,
      "hole": 7622,
      "iven": 7623,
      "lm": 7624,
      "uber": 7625,
      "works": 7626,
      "ys": 7627,
      "Ġturb": 7628,
      "Ġaver": 7629,
      "Ġsul": 7630,
      "Ġwinked": 7631,
      "edle": 7632,
      "ednes": 7633,
      "Ġbould": 7634,
      "Ġbully": 7635,
      "Ġbunk": 7636,
      "Ġbann": 7637,
      "ĠHoke": 7638,
      "ĠHurry": 7639,
      "Ġfumbled": 7640,
      "Ġferv": 7641,
      "Ġtoes": 7642,
      "Ġcub": 7643,
      "orious": 7644,
      "Ġheap": 7645,
      "Ġdot": 7646,
      "Ġdign": 7647,
      "Ġdashing": 7648,
      "Ġmound": 7649,
      "Ġmasked": 7650,
      "Ġpine": 7651,
      "Ġinher": 7652,
      "Ġsallow": 7653,
      "ombs": 7654,
      "Ġwasted": 7655,
      "Ġwashed": 7656,
      "acted": 7657,
      "Ġstarry": 7658,
      "ĠTot": 7659,
      "ĠTop": 7660,
      "ĠTues": 7661,
      "ĠSupp": 7662,
      "ĠME": 7663,
      "ĠMon": 7664,
      "ĠWednes": 7665,
      "ĠDaw": 7666,
      "ĠRed": 7667,
      "aggy": 7668,
      "ste": 7669,
      "ĠPince": 7670,
      "chaun": 7671,
      "ums": 7672,
      "ĠBog": 7673,
      "Ġshivered": 7674,
      "Ġlookout": 7675,
      "Ġframes": 7676,
      "Ġmeal": 7677,
      "Ġneg": 7678,
      "Ġrack": 7679,
      "Ġfears": 7680,
      "Ġshell": 7681,
      "Ġbacking": 7682,
      "orts": 7683,
      "Ġvampire": 7684,
      "ĠON": 7685,
      "ĠOcto": 7686,
      "Ġnoses": 7687,
      "Ġalert": 7688,
      "Ġovergrown": 7689,
      "ersed": 7690,
      "Ġsugar": 7691,
      "ĠEach": 7692,
      "ization": 7693,
      "Ġcondu": 7694,
      "Ġunin": 7695,
      "Ġhandwrit": 7696,
      "Ġscanning": 7697,
      "Ġplacing": 7698,
      "Ġplants": 7699,
      "Ġslowed": 7700,
      "Ġwandm": 7701,
      "Ġheadline": 7702,
      "ĠKilling": 7703,
      "Ġglist": 7704,
      "Ġglided": 7705,
      "Ġsomewhat": 7706,
      "Ġgrudging": 7707,
      "olia": 7708,
      "Ġswive": 7709,
      "Ġprecious": 7710,
      "Ġimper": 7711,
      "thorn": 7712,
      "ĠNew": 7713,
      "teenth": 7714,
      "Ġproceed": 7715,
      "Ġprat": 7716,
      "uckle": 7717,
      "Ġcontaining": 7718,
      "Ġarmed": 7719,
      "Ġtalent": 7720,
      "Ġstrang": 7721,
      "Ġsnigg": 7722,
      "ĠStre": 7723,
      "Ġsupported": 7724,
      "Ġsidecar": 7725,
      "Ġsmallest": 7726,
      "Ġboots": 7727,
      "Ġcares": 7728,
      "Ġstealing": 7729,
      "Ġresign": 7730,
      "Ġtopmost": 7731,
      "Ġscarves": 7732,
      "ension": 7733,
      "Ġadvent": 7734,
      "ĠAlthough": 7735,
      "ĠShunp": 7736,
      "Ġexcl": 7737,
      "Ġspellbooks": 7738,
      "Ġaccom": 7739,
      "Ġinsult": 7740,
      "Ġrefer": 7741,
      "locks": 7742,
      "Ġmethod": 7743,
      "Ġconfusion": 7744,
      "cloth": 7745,
      "Ġnecks": 7746,
      "Ġbuying": 7747,
      "Ġdreaming": 7748,
      "Ġyoungest": 7749,
      "ounce": 7750,
      "Ġspring": 7751,
      "Ġregard": 7752,
      "Ġwomen": 7753,
      "Ġwrithing": 7754,
      "Ġtones": 7755,
      "Ġstroking": 7756,
      "Ġdrawer": 7757,
      "Ġdrawers": 7758,
      "ĠCrack": 7759,
      "Ġcolors": 7760,
      "Ġwoods": 7761,
      "Ġinvitation": 7762,
      "Ġbowtr": 7763,
      "Ġgleamed": 7764,
      "Ġfreck": 7765,
      "Ġtempt": 7766,
      "ĠImag": 7767,
      "Ġfacedown": 7768,
      "Ġcounted": 7769,
      "Ġpossessions": 7770,
      "Ġspirit": 7771,
      "Ġgroan": 7772,
      "Ġexciting": 7773,
      "Ġdraped": 7774,
      "Ġdriven": 7775,
      "Ġstatues": 7776,
      "Ġreceive": 7777,
      "Ġaffection": 7778,
      "Ġuneasy": 7779,
      "Ġjerking": 7780,
      "Ġpreviously": 7781,
      "Ġfellows": 7782,
      "Ġaiming": 7783,
      "Ġsloping": 7784,
      "ĠTwenty": 7785,
      "Ġsweaty": 7786,
      "Ġshifted": 7787,
      "Ġcharged": 7788,
      "Ġgnarled": 7789,
      "Ġyards": 7790,
      "Ġastonishment": 7791,
      "Ġtransformed": 7792,
      "Ġgrasp": 7793,
      "Ġcapture": 7794,
      "Ġmodel": 7795,
      "aimed": 7796,
      "Ġappreciate": 7797,
      "Ġpetrified": 7798,
      "Ġdodged": 7799,
      "Ġdecorated": 7800,
      "nesse": 7801,
      "Ġcompete": 7802,
      "Ġfashioned": 7803,
      "Ġreassuring": 7804,
      "Ġrelaxed": 7805,
      "Ġhealth": 7806,
      "Ġintense": 7807,
      "ĠDungb": 7808,
      "Ġinvented": 7809,
      "ĠBox": 7810,
      "Ġdefiantly": 7811,
      "Ġhyster": 7812,
      "ĠRiddles": 7813,
      "Ġinstruments": 7814,
      "Ġbillowing": 7815,
      "Ġexceptionally": 7816,
      "ĠCarrows": 7817,
      "Ġtelescope": 7818,
      "Ġbrutal": 7819,
      "Ġlonely": 7820,
      "Ġanticip": 7821,
      "ĠThicknesse": 7822,
      "Ġprotruding": 7823,
      "ĠAmycus": 7824,
      "Ġoriginal": 7825,
      "Ġstammered": 7826,
      "ĠKedavra": 7827,
      "Ġclosest": 7828,
      "ĠHokey": 7829,
      "ĠTuesday": 7830,
      "ĠWednesday": 7831,
      "ĠDawlish": 7832,
      "ĠOctober": 7833,
      "ĠShunpike": 7834,
      "EE": 7835,
      "GE": 7836,
      "KS": 7837,
      "VER": 7838,
      "fixed": 7839,
      "iently": 7840,
      "ms": 7841,
      "nut": 7842,
      "plo": 7843,
      "post": 7844,
      "then": 7845,
      "uously": 7846,
      "whe": 7847,
      "Ġversion": 7848,
      "Ġtough": 7849,
      "hearted": 7850,
      "Ġwise": 7851,
      "Ġhoop": 7852,
      "edy": 7853,
      "Ġbol": 7854,
      "Ġfled": 7855,
      "Ġfiled": 7856,
      "Ġfanc": 7857,
      "Ġtown": 7858,
      "orian": 7859,
      "idering": 7860,
      "Ġheir": 7861,
      "Ġded": 7862,
      "Ġduck": 7863,
      "Ġdirt": 7864,
      "Ġnaturally": 7865,
      "Ġnonsense": 7866,
      "Ġwash": 7867,
      "ĠTrying": 7868,
      "ĠSC": 7869,
      "ĠSer": 7870,
      "ĠSide": 7871,
      "ĠSEC": 7872,
      "ioned": 7873,
      "ĠMill": 7874,
      "adies": 7875,
      "Ġreaction": 7876,
      "ĠAbb": 7877,
      "agers": 7878,
      "rig": 7879,
      "Ġforth": 7880,
      "Ġsees": 7881,
      "ĠHeir": 7882,
      "ĠBit": 7883,
      "ĠBANG": 7884,
      "Ġshared": 7885,
      "Ġshower": 7886,
      "Ġshaggy": 7887,
      "Ġkidding": 7888,
      "Ġmend": 7889,
      "ĠFen": 7890,
      "ĠFif": 7891,
      "andal": 7892,
      "Ġride": 7893,
      "Ġrace": 7894,
      "ĠLI": 7895,
      "ĠLo": 7896,
      "Ġallowing": 7897,
      "Ġsheet": 7898,
      "quee": 7899,
      "Ġrobe": 7900,
      "ĠWha": 7901,
      "Ġchart": 7902,
      "Ġchased": 7903,
      "Ġchallen": 7904,
      "ĠEver": 7905,
      "Ġspo": 7906,
      "Ġsplin": 7907,
      "Ġspitting": 7908,
      "Ġunse": 7909,
      "Ġscathing": 7910,
      "Ġclas": 7911,
      "Ġclattering": 7912,
      "Ġclanking": 7913,
      "bber": 7914,
      "Ġmoan": 7915,
      "Ġtwit": 7916,
      "Ġsmug": 7917,
      "ĠKN": 7918,
      "Ġhowl": 7919,
      "Ġdoorkn": 7920,
      "Ġvol": 7921,
      "Ġtrained": 7922,
      "Ġglory": 7923,
      "Ġgru": 7924,
      "Ġflapping": 7925,
      "Ġswig": 7926,
      "Ġwilling": 7927,
      "Ġmane": 7928,
      "Ġdisag": 7929,
      "Ġmug": 7930,
      "Ġremote": 7931,
      "Ġremorse": 7932,
      "Ġpropped": 7933,
      "Ġsilhouet": 7934,
      "Ġstraining": 7935,
      "ĠInc": 7936,
      "Ġamid": 7937,
      "Ġcozy": 7938,
      "Ġcris": 7939,
      "Ġclearer": 7940,
      "Ġdaylight": 7941,
      "Ġsuppress": 7942,
      "Ġelb": 7943,
      "Ġraw": 7944,
      "ipes": 7945,
      "tyard": 7946,
      "Ġfinishing": 7947,
      "ĠAsk": 7948,
      "Ġsquat": 7949,
      "untled": 7950,
      "Ġboar": 7951,
      "Ġbooming": 7952,
      "ĠArgus": 7953,
      "Ġappearing": 7954,
      "Ġsnapping": 7955,
      "ĠErm": 7956,
      "Ġcornin": 7957,
      "Ġparaly": 7958,
      "Ġsignific": 7959,
      "Ġdetect": 7960,
      "Ġmaroon": 7961,
      "Ġhallway": 7962,
      "Ġhearth": 7963,
      "Ġcats": 7964,
      "rific": 7965,
      "umming": 7966,
      "Ġrelatives": 7967,
      "Ġserved": 7968,
      "ĠTHAT": 7969,
      "Ġdangerously": 7970,
      "Ġconfisc": 7971,
      "Ġbubbles": 7972,
      "Ġeduc": 7973,
      "Ġreported": 7974,
      "ounter": 7975,
      "Ġsnakelike": 7976,
      "Ġgasping": 7977,
      "Ġhurtling": 7978,
      "ĠSomewhere": 7979,
      "Ġcrossbow": 7980,
      "Ġpractical": 7981,
      "Ġquestioning": 7982,
      "Ġcolle": 7983,
      "Ġcollar": 7984,
      "Ġwindowsill": 7985,
      "Ġwarningly": 7986,
      "Ġdisappearing": 7987,
      "Ġinvite": 7988,
      "ĠDefensive": 7989,
      "Ġimagination": 7990,
      "Ġrattled": 7991,
      "Ġcopies": 7992,
      "Ġtemple": 7993,
      "Ġtransfixed": 7994,
      "Ġdesperation": 7995,
      "Ġpunished": 7996,
      "iction": 7997,
      "Ġtrailing": 7998,
      "Ġheadmasters": 7999,
      "Ġadvised": 8000,
      "Ġterms": 8001,
      "Ġconvince": 8002,
      "Ġurged": 8003,
      "Ġglittered": 8004,
      "Ġgroped": 8005,
      "Ġdriving": 8006,
      "Ġcomplicated": 8007,
      "ANT": 8008,
      "Ġpreparing": 8009,
      "ĠHope": 8010,
      "Ġmusc": 8011,
      "Ġcourtyard": 8012,
      "ĠPoor": 8013,
      "Ġnoisy": 8014,
      "Ġmurderer": 8015,
      "Ġgenerally": 8016,
      "ĠEnfor": 8017,
      "Ġmainly": 8018,
      "Ġmagnified": 8019,
      "Ġlimping": 8020,
      "Ġdeliver": 8021,
      "Ġconstant": 8022,
      "Ġdazed": 8023,
      "Ġfortune": 8024,
      "Ġflooded": 8025,
      "Ġrequest": 8026,
      "Ġarranged": 8027,
      "Ġstarving": 8028,
      "Ġdelivered": 8029,
      "Ġproduce": 8030,
      "Ġskrewt": 8031,
      "Ġcandlelight": 8032,
      "Ġtickets": 8033,
      "ĠMagorian": 8034,
      "Ġskept": 8035,
      "Ġoutrage": 8036,
      "Ġconditions": 8037,
      "Ġrummaging": 8038,
      "Ġgreenhouse": 8039,
      "Ġgreenhouses": 8040,
      "Ġqueue": 8041,
      "ĠFletcher": 8042,
      "ĠWitchcraft": 8043,
      "Ġdisapproving": 8044,
      "turned": 8045,
      "Ġmonstrous": 8046,
      "Ġstamping": 8047,
      "ĠRomilda": 8048,
      "Ġobscured": 8049,
      "Ġexpressions": 8050,
      "ĠSeconds": 8051,
      "Ġcooking": 8052,
      "Ġtraitor": 8053,
      "ĠFollow": 8054,
      "Ġinstinctively": 8055,
      "Ġmortal": 8056,
      "Ġetched": 8057,
      "ĠTrevor": 8058,
      "Ġfleeting": 8059,
      "Ġsausages": 8060,
      "Ġfeverishly": 8061,
      "ĠMarchbanks": 8062,
      "Ġmoldy": 8063,
      "Ġdeparture": 8064,
      "ĠAnimagus": 8065,
      "Ġeerie": 8066,
      "Ġdisgruntled": 8067,
      "Ġarrogant": 8068,
      "Ġrepresent": 8069,
      "ĠNumber": 8070,
      "Ġrevenge": 8071,
      "Ġbuzzing": 8072,
      "Ġelectric": 8073,
      "Ġbezoar": 8074,
      "ĠMagnolia": 8075,
      "Ġwandmaker": 8076,
      "ĠAbbott": 8077,
      "ĠEnforcement": 8078,
      "BER": 8079,
      "cast": 8080,
      "iers": 8081,
      "iol": 8082,
      "ko": 8083,
      "pher": 8084,
      "pos": 8085,
      "uary": 8086,
      "Ġ2": 8087,
      "Ġtant": 8088,
      "Ġtiar": 8089,
      "Ġsons": 8090,
      "Ġsorted": 8091,
      "Ġwire": 8092,
      "reen": 8093,
      "ederation": 8094,
      "onse": 8095,
      "onze": 8096,
      "onko": 8097,
      "Ġbun": 8098,
      "ĠHard": 8099,
      "ĠHaving": 8100,
      "Ġoo": 8101,
      "itating": 8102,
      "Ġca": 8103,
      "Ġcrest": 8104,
      "aser": 8105,
      "lle": 8106,
      "Ġheel": 8107,
      "Ġder": 8108,
      "Ġdumb": 8109,
      "Ġdried": 8110,
      "Ġmill": 8111,
      "Ġmixed": 8112,
      "Ġlat": 8113,
      "Ġlion": 8114,
      "Ġlace": 8115,
      "Ġpaces": 8116,
      "Ġgar": 8117,
      "Ġsac": 8118,
      "Ġwasting": 8119,
      "Ġbem": 8120,
      "Ġere": 8121,
      "Ġyouth": 8122,
      "veying": 8123,
      "Ġstage": 8124,
      "Ġstowed": 8125,
      "Ġstones": 8126,
      "Ġstamped": 8127,
      "eted": 8128,
      "etwork": 8129,
      "icle": 8130,
      "icent": 8131,
      "vert": 8132,
      "ĠSA": 8133,
      "ĠSal": 8134,
      "ĠSib": 8135,
      "ĠSaid": 8136,
      "Ġwhiz": 8137,
      "ĠMis": 8138,
      "ĠMIN": 8139,
      "road": 8140,
      "rolling": 8141,
      "ĠWhing": 8142,
      "ĠDem": 8143,
      "alty": 8144,
      "ĠAren": 8145,
      "redit": 8146,
      "umer": 8147,
      "ĠBas": 8148,
      "ĠBrilli": 8149,
      "Ġlookin": 8150,
      "Ġupro": 8151,
      "Ġfrail": 8152,
      "ĠClass": 8153,
      "Ġknives": 8154,
      "ĠNicol": 8155,
      "Ġsheets": 8156,
      "Ġliking": 8157,
      "Ġvivid": 8158,
      "ĠOW": 8159,
      "Ġlepre": 8160,
      "raught": 8161,
      "Ġaltern": 8162,
      "ulting": 8163,
      "Ġtext": 8164,
      "Ġpoke": 8165,
      "ĠEduc": 8166,
      "izable": 8167,
      "Ġspoon": 8168,
      "Ġspilling": 8169,
      "icky": 8170,
      "Ġunne": 8171,
      "opes": 8172,
      "Ġblink": 8173,
      "Ġblunder": 8174,
      "Ġscru": 8175,
      "ĠProfessors": 8176,
      "Ġclick": 8177,
      "ĠTha": 8178,
      "Ġheadstone": 8179,
      "ĠKill": 8180,
      "Ġthroughout": 8181,
      "Ġgrat": 8182,
      "Ġflin": 8183,
      "abior": 8184,
      "ĠChamp": 8185,
      "Ġlittered": 8186,
      "Ġfirs": 8187,
      "Ġbronze": 8188,
      "atedly": 8189,
      "Ġprodding": 8190,
      "Ġcontorted": 8191,
      "plexed": 8192,
      "Ġstrangled": 8193,
      "Ġstricken": 8194,
      "rieking": 8195,
      "Ġoldest": 8196,
      "Ġchewing": 8197,
      "Ġcrime": 8198,
      "ĠBeedle": 8199,
      "ĠStr": 8200,
      "Ġgreatly": 8201,
      "Ġbitten": 8202,
      "Ġsurvey": 8203,
      "ĠHowler": 8204,
      "ĠSoon": 8205,
      "Ġschoolbag": 8206,
      "Ġnewly": 8207,
      "Ġperch": 8208,
      "Ġskul": 8209,
      "Ġlifting": 8210,
      "Ġbeginning": 8211,
      "Ġsquash": 8212,
      "Ġangle": 8213,
      "Ġboss": 8214,
      "Ġstew": 8215,
      "urses": 8216,
      "Ġpartners": 8217,
      "Ġbelieving": 8218,
      "Ġresting": 8219,
      "Ġincident": 8220,
      "phias": 8221,
      "Ġfingered": 8222,
      "igging": 8223,
      "Ġdetail": 8224,
      "Ġmarquee": 8225,
      "ĠScabior": 8226,
      "Ġdefle": 8227,
      "Ġactiv": 8228,
      "Ġpots": 8229,
      "Ġbreathless": 8230,
      "ĠShrieking": 8231,
      "ĠSnat": 8232,
      "Ġbloodshot": 8233,
      "Ġrelated": 8234,
      "Ġinsp": 8235,
      "Ġrefuse": 8236,
      "Ġrepaired": 8237,
      "Ġveget": 8238,
      "Ġcrossing": 8239,
      "Ġpractices": 8240,
      "Ġstroke": 8241,
      "Ġimportance": 8242,
      "Ġmeantime": 8243,
      "Ġintent": 8244,
      "Ġassure": 8245,
      "Ġconsidering": 8246,
      "Ġvisiting": 8247,
      "isky": 8248,
      "Ġdeserve": 8249,
      "Ġpunched": 8250,
      "Ġpunching": 8251,
      "Ġadvancing": 8252,
      "Ġposters": 8253,
      "Ġcracking": 8254,
      "Ġcrackling": 8255,
      "Ġdestination": 8256,
      "Ġdealing": 8257,
      "Ġdetermination": 8258,
      "Ġpolice": 8259,
      "Ġprior": 8260,
      "whisky": 8261,
      "Ġjeering": 8262,
      "Ġreminding": 8263,
      "ĠZonko": 8264,
      "ompre": 8265,
      "OOD": 8266,
      "Ġdripping": 8267,
      "Ġaffect": 8268,
      "Ġcomplaining": 8269,
      "ĠCorner": 8270,
      "Ġmurmur": 8271,
      "AND": 8272,
      "Ġinjury": 8273,
      "Ġyellowish": 8274,
      "Ġexplosion": 8275,
      "Ġhighest": 8276,
      "Ġirritated": 8277,
      "Ġspluttered": 8278,
      "Ġfreshly": 8279,
      "Ġwhistling": 8280,
      "ikulus": 8281,
      "Ġinflu": 8282,
      "Ġbelongs": 8283,
      "ĠFinch": 8284,
      "Ġpersuaded": 8285,
      "Ġboarded": 8286,
      "Ġexhaust": 8287,
      "ĠSTU": 8288,
      "Ġlimped": 8289,
      "Ġgestured": 8290,
      "Ġdescending": 8291,
      "Ġearned": 8292,
      "Ġrolls": 8293,
      "Ġwipe": 8294,
      "Ġwishes": 8295,
      "Ġwounds": 8296,
      "Ġconsiderable": 8297,
      "Ġarrang": 8298,
      "Ġhexes": 8299,
      "Ġsmelled": 8300,
      "Ġlabeled": 8301,
      "Ġpaler": 8302,
      "Ġrevolving": 8303,
      "Ġresentful": 8304,
      "Ġaccepted": 8305,
      "ĠFletchley": 8306,
      "Ġtroph": 8307,
      "Ġsevere": 8308,
      "Ġseverely": 8309,
      "Ġapprehensive": 8310,
      "Ġtroubled": 8311,
      "Ġchimney": 8312,
      "ĠElphias": 8313,
      "BLEDOR": 8314,
      "Ġswarming": 8315,
      "Ġreproach": 8316,
      "Ġpronounced": 8317,
      "Ġincantation": 8318,
      "Ġintrud": 8319,
      "Ġdescribed": 8320,
      "Ġexecution": 8321,
      "Ġporridge": 8322,
      "Ġvigorously": 8323,
      "ĠHonestly": 8324,
      "Ġgrudgingly": 8325,
      "Ġadventure": 8326,
      "ĠMillicent": 8327,
      "Ġdoorknob": 8328,
      "Ġgrubby": 8329,
      "Ġtiara": 8330,
      "ĠSibyll": 8331,
      "ĠMINIST": 8332,
      "ĠWhinging": 8333,
      "ĠBrilliant": 8334,
      "ĠNicolas": 8335,
      "Ġleprechaun": 8336,
      "Ġunnecess": 8337,
      "BLEDORE": 8338,
      "LY": 8339,
      "QU": 8340,
      "RR": 8341,
      "auding": 8342,
      "cers": 8343,
      "hold": 8344,
      "iped": 8345,
      "iber": 8346,
      "rir": 8347,
      "rick": 8348,
      "sk": 8349,
      "vol": 8350,
      "ym": 8351,
      "za": 8352,
      "Ġi": 8353,
      "Ġtut": 8354,
      "Ġtack": 8355,
      "Ġtil": 8356,
      "Ġtested": 8357,
      "hery": 8358,
      "Ġsid": 8359,
      "Ġwan": 8360,
      "Ġwary": 8361,
      "Ġhugging": 8362,
      "inge": 8363,
      "erc": 8364,
      "arch": 8365,
      "Ġbrow": 8366,
      "Ġbarn": 8367,
      "ĠHest": 8368,
      "Ġfate": 8369,
      "asingly": 8370,
      "Ġdw": 8371,
      "Ġdus": 8372,
      "Ġdren": 8373,
      "Ġdwell": 8374,
      "Ġmoth": 8375,
      "Ġlun": 8376,
      "Ġlasted": 8377,
      "Ġpuffy": 8378,
      "Ġpaddock": 8379,
      "Ġhaught": 8380,
      "Ġgon": 8381,
      "Ġgaunt": 8382,
      "leg": 8383,
      "ĠIll": 8384,
      "omers": 8385,
      "Ġbelt": 8386,
      "Ġhiss": 8387,
      "Ġstreak": 8388,
      "Ġstumped": 8389,
      "oooo": 8390,
      "ĠTm": 8391,
      "ĠTry": 8392,
      "Ġonward": 8393,
      "ĠSay": 8394,
      "ĠSince": 8395,
      "Ġwhit": 8396,
      "ĠMight": 8397,
      "ĠMake": 8398,
      "ĠMother": 8399,
      "ĠMaf": 8400,
      "ĠMistress": 8401,
      "rod": 8402,
      "rock": 8403,
      "rode": 8404,
      "ĠWEA": 8405,
      "ĠDI": 8406,
      "ĠDUM": 8407,
      "Ġrear": 8408,
      "Ġreli": 8409,
      "ĠRep": 8410,
      "step": 8411,
      "kew": 8412,
      "ĠPass": 8413,
      "ĠPiers": 8414,
      "Ġseared": 8415,
      "ampered": 8416,
      "ĠBard": 8417,
      "Ġsharing": 8418,
      "Ġshrill": 8419,
      "Ġshorter": 8420,
      "Ġkit": 8421,
      "Ġfraction": 8422,
      "Ġfruit": 8423,
      "ems": 8424,
      "ĠClu": 8425,
      "ĠCOM": 8426,
      "ĠYep": 8427,
      "ĠFunny": 8428,
      "Ġrich": 8429,
      "Ġrange": 8430,
      "ili": 8431,
      "ĠLyn": 8432,
      "ĠWere": 8433,
      "Ġjoy": 8434,
      "Ġgoals": 8435,
      "Ġsocket": 8436,
      "inks": 8437,
      "Ġaged": 8438,
      "Ġagitated": 8439,
      "Ġovercome": 8440,
      "Ġtheirs": 8441,
      "Ġchort": 8442,
      "Ġchase": 8443,
      "Ġchained": 8444,
      "ĠEX": 8445,
      "Ġsprawled": 8446,
      "elza": 8447,
      "Ġunb": 8448,
      "Ġunner": 8449,
      "Ġunfortun": 8450,
      "assed": 8451,
      "opy": 8452,
      "Ġblot": 8453,
      "arewell": 8454,
      "Ġscored": 8455,
      "Ġscooped": 8456,
      "Ġclamped": 8457,
      "Ġslack": 8458,
      "ĠThird": 8459,
      "Ġcompr": 8460,
      "Ġsmugg": 8461,
      "angular": 8462,
      "Ġtragic": 8463,
      "ĠUP": 8464,
      "ĠUnd": 8465,
      "Ġflapped": 8466,
      "Ġswing": 8467,
      "Ġsworn": 8468,
      "Ġmanaging": 8469,
      "Ġdisple": 8470,
      "Ġdisarm": 8471,
      "Ġloathed": 8472,
      "ĠDev": 8473,
      "Ġappalled": 8474,
      "Ġevenings": 8475,
      "Ġbrushed": 8476,
      "Ġbrushing": 8477,
      "Ġhooted": 8478,
      "Ġcontrolled": 8479,
      "Ġarmy": 8480,
      "lessness": 8481,
      "Ġcovers": 8482,
      "Ġemplo": 8483,
      "Ġsurge": 8484,
      "Ġsurveying": 8485,
      "Ġcurling": 8486,
      "Ġrabb": 8487,
      "Ġsettle": 8488,
      "ailing": 8489,
      "Ġours": 8490,
      "Ġfireworks": 8491,
      "Ġfirewhisky": 8492,
      "Ġboomed": 8493,
      "Ġsteering": 8494,
      "Ġobst": 8495,
      "Ġforearm": 8496,
      "Ġresult": 8497,
      "Ġpartner": 8498,
      "Ġtreacle": 8499,
      "ithering": 8500,
      "ĠSeven": 8501,
      "Ġfourteen": 8502,
      "Ġfacts": 8503,
      "Ġmemor": 8504,
      "Ġsweating": 8505,
      "ronted": 8506,
      "ival": 8507,
      "Ġsincerely": 8508,
      "ĠExcept": 8509,
      "ĠSnork": 8510,
      "Ġrelation": 8511,
      "Ġaccord": 8512,
      "Ġspots": 8513,
      "Ġpattern": 8514,
      "Ġpathetic": 8515,
      "Ġprotest": 8516,
      "ĠLooks": 8517,
      "Ġsimilar": 8518,
      "Ġcups": 8519,
      "Ġrubbed": 8520,
      "alda": 8521,
      "ĠWithin": 8522,
      "Ġrepeat": 8523,
      "Ġcollection": 8524,
      "Ġthrashing": 8525,
      "Ġintrig": 8526,
      "Ġmission": 8527,
      "ĠTrue": 8528,
      "ĠDaddy": 8529,
      "Ġhastened": 8530,
      "Ġfrost": 8531,
      "noticed": 8532,
      "Ġmessing": 8533,
      "Ġferret": 8534,
      "Ġbounded": 8535,
      "ĠImp": 8536,
      "Ġpanicked": 8537,
      "Ġdiscussed": 8538,
      "Ġtrusts": 8539,
      "Ġinner": 8540,
      "Ġproblems": 8541,
      "Ġsneer": 8542,
      "Ġdefinite": 8543,
      "Ġsuspicion": 8544,
      "Ġessential": 8545,
      "Ġtricks": 8546,
      "Ġwinced": 8547,
      "Ġdreading": 8548,
      "Ġthreatened": 8549,
      "Ġoccasions": 8550,
      "Ġmercy": 8551,
      "Ġarmchairs": 8552,
      "Ġpounded": 8553,
      "Ġunfolded": 8554,
      "scent": 8555,
      "Ġabrupt": 8556,
      "Ġresponse": 8557,
      "Ġgiggled": 8558,
      "Ġcorrected": 8559,
      "Ġaimed": 8560,
      "Ġpoisonous": 8561,
      "Ġindignation": 8562,
      "Ġsqueezing": 8563,
      "Ġfaintest": 8564,
      "Ġshuddering": 8565,
      "ĠAccording": 8566,
      "Ġgnomes": 8567,
      "Ġglowering": 8568,
      "Ġbalding": 8569,
      "Ġsweetly": 8570,
      "Ġwisp": 8571,
      "Ġcowering": 8572,
      "Ġincreased": 8573,
      "Ġincreasingly": 8574,
      "GHT": 8575,
      "Ġcollecting": 8576,
      "Ġbiggest": 8577,
      "Ġcondition": 8578,
      "Ġappointment": 8579,
      "Ġunexpectedly": 8580,
      "Ġrummaged": 8581,
      "Ġenclosure": 8582,
      "Ġintens": 8583,
      "Ġscurrying": 8584,
      "ĠIgn": 8585,
      "Ġresponsible": 8586,
      "Ġresponsibility": 8587,
      "Ġcapable": 8588,
      "Ġfrustration": 8589,
      "Ġrescue": 8590,
      "Ġapprehensively": 8591,
      "Ġgalloping": 8592,
      "Ġsoothing": 8593,
      "ĠOooh": 8594,
      "Ġstalked": 8595,
      "Ġdisplay": 8596,
      "Ġcritic": 8597,
      "Ġslugs": 8598,
      "Ġsavagely": 8599,
      "Ġbinding": 8600,
      "Ġdramatically": 8601,
      "Ġaggress": 8602,
      "Ġsolemn": 8603,
      "Ġswerved": 8604,
      "Ġinvestigate": 8605,
      "Ġfreedom": 8606,
      "Ġsarcastically": 8607,
      "Ġlanguage": 8608,
      "ĠVanishing": 8609,
      "Ġfrequently": 8610,
      "ĠControl": 8611,
      "Ġaisle": 8612,
      "ekly": 8613,
      "Ġturban": 8614,
      "Ġinherited": 8615,
      "ĠImagine": 8616,
      "ĠFenrir": 8617,
      "Ġsacrif": 8618,
      "ĠDemelza": 8619,
      "ĠHestia": 8620,
      "ĠMafalda": 8621,
      "ĠWEASLEY": 8622,
      "ĠDUMBLEDORE": 8623,
      "ĠLynch": 8624,
      "Ġunfortunate": 8625,
      "ĠSnorkack": 8626,
      "AD": 8627,
      "TO": 8628,
      "cr": 8629,
      "cule": 8630,
      "cases": 8631,
      "hound": 8632,
      "iac": 8633,
      "ians": 8634,
      "ials": 8635,
      "mat": 8636,
      "mind": 8637,
      "mates": 8638,
      "occ": 8639,
      "vable": 8640,
      "worm": 8641,
      "Ġut": 8642,
      "Ġest": 8643,
      "Ġav": 8644,
      "Ġaid": 8645,
      "Ġagh": 8646,
      "Ġsan": 8647,
      "Ġsust": 8648,
      "Ġsixty": 8649,
      "Ġwaking": 8650,
      "rees": 8651,
      "Ġhook": 8652,
      "Ġhind": 8653,
      "Ġhilt": 8654,
      "Ġhooked": 8655,
      "Ġhunting": 8656,
      "arked": 8657,
      "Ġboo": 8658,
      "Ġbond": 8659,
      "Ġbared": 8660,
      "ĠHappy": 8661,
      "Ġfreak": 8662,
      "Ġfulf": 8663,
      "Ġowe": 8664,
      "Ġcal": 8665,
      "Ġcock": 8666,
      "Ġcreak": 8667,
      "orre": 8668,
      "orus": 8669,
      "lles": 8670,
      "Ġhed": 8671,
      "Ġdin": 8672,
      "Ġdung": 8673,
      "Ġdwe": 8674,
      "Ġmarry": 8675,
      "Ġmouse": 8676,
      "Ġmask": 8677,
      "Ġlatter": 8678,
      "Ġthundered": 8679,
      "Ġpus": 8680,
      "Ġpall": 8681,
      "Ġpunch": 8682,
      "Ġpomp": 8683,
      "Ġgain": 8684,
      "Ġgained": 8685,
      "ancy": 8686,
      "lets": 8687,
      "lecto": 8688,
      "Ġease": 8689,
      "acy": 8690,
      "aches": 8691,
      "uscule": 8692,
      "veled": 8693,
      "Ġstall": 8694,
      "Ġstump": 8695,
      "ĠThing": 8696,
      "iche": 8697,
      "ĠSix": 8698,
      "iring": 8699,
      "ĠDown": 8700,
      "ĠDanger": 8701,
      "Ġweb": 8702,
      "Ġwel": 8703,
      "Ġaskew": 8704,
      "Ġrelease": 8705,
      "urt": 8706,
      "urre": 8707,
      "ĠRE": 8708,
      "ĠAL": 8709,
      "ĠAc": 8710,
      "ĠAvery": 8711,
      "ĠAnt": 8712,
      "ĠAlecto": 8713,
      "ĠPod": 8714,
      "ĠPerson": 8715,
      "Ġseason": 8716,
      "herry": 8717,
      "tery": 8718,
      "ppings": 8719,
      "ackets": 8720,
      "ĠBL": 8721,
      "Ġshred": 8722,
      "Ġshuffling": 8723,
      "aint": 8724,
      "Ġdoin": 8725,
      "ĠCo": 8726,
      "ĠGol": 8727,
      "ĠGOT": 8728,
      "ĠGET": 8729,
      "Ġmended": 8730,
      "Ġkno": 8731,
      "Ġrout": 8732,
      "Ġrag": 8733,
      "Ġrotting": 8734,
      "ilities": 8735,
      "ĠLucky": 8736,
      "akers": 8737,
      "ifying": 8738,
      "ĠNetwork": 8739,
      "Ġshed": 8740,
      "Ġjets": 8741,
      "Ġjammed": 8742,
      "Ġjabbed": 8743,
      "Ġsold": 8744,
      "Ġsock": 8745,
      "ĠOp": 8746,
      "Ġroast": 8747,
      "Ġoverwhe": 8748,
      "Ġteap": 8749,
      "Ġsucked": 8750,
      "Ġpopped": 8751,
      "Ġdownward": 8752,
      "ĠEgy": 8753,
      "izes": 8754,
      "Ġspin": 8755,
      "Ġunbe": 8756,
      "ĠVe": 8757,
      "Ġblushing": 8758,
      "Ġclunk": 8759,
      "Ġslithering": 8760,
      "Ġtrad": 8761,
      "Ġflu": 8762,
      "Ġflared": 8763,
      "Ġflustered": 8764,
      "Ġswishing": 8765,
      "Ġwatering": 8766,
      "Ġpeer": 8767,
      "Ġpeeling": 8768,
      "Ġloathing": 8769,
      "Ġprof": 8770,
      "ressing": 8771,
      "Ġholly": 8772,
      "Ġwailing": 8773,
      "Ġwailed": 8774,
      "Ġdarkening": 8775,
      "Ġattic": 8776,
      "Ġstrain": 8777,
      "Ġstrings": 8778,
      "Ġsnort": 8779,
      "ĠQU": 8780,
      "ĠJuly": 8781,
      "Ġcoast": 8782,
      "Ġcheered": 8783,
      "ĠBeen": 8784,
      "ĠBloody": 8785,
      "Ġfewer": 8786,
      "azed": 8787,
      "Ġsets": 8788,
      "weed": 8789,
      "getically": 8790,
      "Ġpleading": 8791,
      "ĠArmy": 8792,
      "Ġminuscule": 8793,
      "Ġresigned": 8794,
      "Ġrested": 8795,
      "shine": 8796,
      "Ġrecall": 8797,
      "Ġadvis": 8798,
      "Ġreduced": 8799,
      "Ġawoken": 8800,
      "Ġbreaths": 8801,
      "Ġdiversion": 8802,
      "Ġsurprising": 8803,
      "Ġflee": 8804,
      "itches": 8805,
      "Ġaccidents": 8806,
      "Ġspotting": 8807,
      "Ġserve": 8808,
      "Ġinterven": 8809,
      "Ġmisery": 8810,
      "Ġtrousers": 8811,
      "Ġsubd": 8812,
      "Ġsubs": 8813,
      "Ġedging": 8814,
      "ĠBella": 8815,
      "ĠProte": 8816,
      "Ġshallow": 8817,
      "Ġveins": 8818,
      "Ġregister": 8819,
      "Ġcrossly": 8820,
      "OUT": 8821,
      "Ġassumed": 8822,
      "Ġgrilles": 8823,
      "Ġhumor": 8824,
      "ĠTrace": 8825,
      "Ġshoot": 8826,
      "Ġghoul": 8827,
      "Ġtightened": 8828,
      "Ġstrongly": 8829,
      "Ġholes": 8830,
      "aggering": 8831,
      "Ġweakness": 8832,
      "Ġenjoyable": 8833,
      "Ġimpatient": 8834,
      "Ġjew": 8835,
      "ĠApparating": 8836,
      "Ġbearded": 8837,
      "Ġpermit": 8838,
      "ĠPatronuses": 8839,
      "Ġimmob": 8840,
      "Ġlunchtime": 8841,
      "Ġirritable": 8842,
      "Ġlurched": 8843,
      "Ġincluded": 8844,
      "ĠMoran": 8845,
      "Ġinterrupt": 8846,
      "Ġgiggle": 8847,
      "Ġoccasional": 8848,
      "Ġblindly": 8849,
      "Ġprecise": 8850,
      "Ġprecaut": 8851,
      "Ġpincers": 8852,
      "Ġsuggestion": 8853,
      "Ġkeyhole": 8854,
      "ĠSTOP": 8855,
      "Ġslope": 8856,
      "ĠTwice": 8857,
      "Ġdescend": 8858,
      "Ġcharges": 8859,
      "Ġcharacter": 8860,
      "Ġilluminating": 8861,
      "Ġrumor": 8862,
      "Ġunicorns": 8863,
      "ĠPrefect": 8864,
      "Ġscraping": 8865,
      "ĠHAVE": 8866,
      "ĠRoad": 8867,
      "Ġcaution": 8868,
      "Ġdescri": 8869,
      "Ġsuperb": 8870,
      "Ġproduced": 8871,
      "Ġneighbor": 8872,
      "Ġaccused": 8873,
      "ĠStudies": 8874,
      "Ġcontempl": 8875,
      "Ġdecorations": 8876,
      "Ġcackled": 8877,
      "Ġcackling": 8878,
      "Ġdelicate": 8879,
      "Ġdelicious": 8880,
      "ĠPadfoot": 8881,
      "Ġwheezy": 8882,
      "Ġassistant": 8883,
      "Ġhooves": 8884,
      "Ġdisguise": 8885,
      "Ġenclosed": 8886,
      "ĠHERM": 8887,
      "Ġominously": 8888,
      "ĠObviously": 8889,
      "Ġsympath": 8890,
      "Ġconclusion": 8891,
      "Ġarrested": 8892,
      "Ġmonsters": 8893,
      "Ġdemonstrate": 8894,
      "Ġlanterns": 8895,
      "Ġpelted": 8896,
      "Ġpotatoes": 8897,
      "Ġcourtroom": 8898,
      "Ġobsessed": 8899,
      "Ġgoggling": 8900,
      "Ġcrimson": 8901,
      "Ġunconvin": 8902,
      "Ġslippery": 8903,
      "Ġdefensively": 8904,
      "Ġfascinating": 8905,
      "Ġmalevol": 8906,
      "Ġabsentmind": 8907,
      "Ġtitle": 8908,
      "Ġcommitted": 8909,
      "Ġinclined": 8910,
      "Ġtemporarily": 8911,
      "Ġbundle": 8912,
      "Ġshriveled": 8913,
      "Ġdismissively": 8914,
      "Ġsandwiches": 8915,
      "ĠSkrewts": 8916,
      "Ġfervently": 8917,
      "ĠBogrod": 8918,
      "ĠStreet": 8919,
      "Ġbowtruckle": 8920,
      "ĠDungbombs": 8921,
      "Ġcavern": 8922,
      "Ġbemused": 8923,
      "Ġgratitude": 8924,
      "Ġsurveyed": 8925,
      "ĠSnatchers": 8926,
      "Ġarrangements": 8927,
      "Ġrabbit": 8928,
      "occup": 8929,
      "Ġutmost": 8930,
      "Ġaghast": 8931,
      "ĠPodmore": 8932,
      "ĠPersonally": 8933,
      "Ġteapot": 8934,
      "ĠEgypt": 8935,
      "Ġabsentmindedly": 8936,
      "IGHT": 8937,
      "WAR": 8938,
      "aque": 8939,
      "cent": 8940,
      "cil": 8941,
      "corn": 8942,
      "cisely": 8943,
      "ciety": 8944,
      "ef": 8945,
      "ience": 8946,
      "iature": 8947,
      "kers": 8948,
      "long": 8949,
      "lig": 8950,
      "olet": 8951,
      "pting": 8952,
      "rs": 8953,
      "xe": 8954,
      "Ġ4": 8955,
      "Ġvers": 8956,
      "Ġtying": 8957,
      "Ġtune": 8958,
      "Ġtini": 8959,
      "inal": 8960,
      "Ġsunny": 8961,
      "Ġwrought": 8962,
      "rescent": 8963,
      "onc": 8964,
      "erating": 8965,
      "arf": 8966,
      "Ġbony": 8967,
      "Ġfurn": 8968,
      "Ġfiling": 8969,
      "Ġow": 8970,
      "isingly": 8971,
      "Ġtoe": 8972,
      "Ġtoss": 8973,
      "Ġtopped": 8974,
      "Ġtoffee": 8975,
      "itive": 8976,
      "itaser": 8977,
      "Ġcul": 8978,
      "Ġcredit": 8979,
      "llig": 8980,
      "llert": 8981,
      "idge": 8982,
      "Ġdense": 8983,
      "Ġdining": 8984,
      "Ġdates": 8985,
      "Ġmice": 8986,
      "Ġlam": 8987,
      "Ġlaws": 8988,
      "Ġpix": 8989,
      "Ġpiled": 8990,
      "Ġpaced": 8991,
      "Ġporing": 8992,
      "Ġpardon": 8993,
      "Ġhaze": 8994,
      "Ġnet": 8995,
      "Ġnap": 8996,
      "Ġbeads": 8997,
      "Ġeaves": 8998,
      "imental": 8999,
      "Ġstab": 9000,
      "Ġstained": 9001,
      "Ġstabbed": 9002,
      "ett": 9003,
      "ethered": 9004,
      "ĠSame": 9005,
      "Ġwhirl": 9006,
      "ĠMorning": 9007,
      "irs": 9008,
      "ĠWIT": 9009,
      "Ġasse": 9010,
      "ĠRel": 9011,
      "ĠARE": 9012,
      "agger": 9013,
      "sters": 9014,
      "stained": 9015,
      "ĠTheory": 9016,
      "Ġforb": 9017,
      "umes": 9018,
      "ĠBall": 9019,
      "ĠBreak": 9020,
      "ĠBye": 9021,
      "Ġsham": 9022,
      "Ġframed": 9023,
      "ĠCent": 9024,
      "ĠCrum": 9025,
      "ĠCrescent": 9026,
      "ĠGone": 9027,
      "ĠGab": 9028,
      "Ġmeat": 9029,
      "Ġrate": 9030,
      "Ġramp": 9031,
      "Ġriding": 9032,
      "ĠLife": 9033,
      "Ġfeeding": 9034,
      "iform": 9035,
      "Ġjaws": 9036,
      "Ġgoss": 9037,
      "Ġsodden": 9038,
      "Ġbackf": 9039,
      "Ġisland": 9040,
      "Ġexerc": 9041,
      "istic": 9042,
      "Ġroars": 9043,
      "cts": 9044,
      "Ġdeb": 9045,
      "ongs": 9046,
      "Ġsuits": 9047,
      "ĠEN": 9048,
      "ĠEle": 9049,
      "Ġquant": 9050,
      "Ġconqu": 9051,
      "Ġunited": 9052,
      "Ġunbl": 9053,
      "Ġunlocked": 9054,
      "Ġuniform": 9055,
      "Ġbless": 9056,
      "aph": 9057,
      "Ġcanopy": 9058,
      "Ġscaly": 9059,
      "Ġscandal": 9060,
      "Ġplanted": 9061,
      "Ġplotting": 9062,
      "Ġclaw": 9063,
      "Ġclinging": 9064,
      "Ġslapping": 9065,
      "Ġmock": 9066,
      "Ġtwil": 9067,
      "Ġtwitch": 9068,
      "vingly": 9069,
      "Ġglorious": 9070,
      "Ġgrunt": 9071,
      "Ġgrades": 9072,
      "Ġflutter": 9073,
      "Ġflashes": 9074,
      "oles": 9075,
      "iddy": 9076,
      "iddling": 9077,
      "Ġpreten": 9078,
      "Ġunderwater": 9079,
      "ĠDead": 9080,
      "Ġapple": 9081,
      "Ġbrim": 9082,
      "Ġbracingly": 9083,
      "uffles": 9084,
      "Ġsnide": 9085,
      "rielle": 9086,
      "Ġcoffee": 9087,
      "Ġdraining": 9088,
      "ĠGellert": 9089,
      "ĠQuill": 9090,
      "Ġentertain": 9091,
      "Ġcrown": 9092,
      "ĠBeater": 9093,
      "Ġimpost": 9094,
      "ĠStat": 9095,
      "ĠStun": 9096,
      "Ġendure": 9097,
      "Ġcleve": 9098,
      "Ġsupporting": 9099,
      "Ġstandard": 9100,
      "Ġtablecloth": 9101,
      "ĠVeritaser": 9102,
      "Ġblackthorn": 9103,
      "Ġfounders": 9104,
      "Ġperplexed": 9105,
[...]
